[PAD]
[unused1]
[unused2]
[unused3]
[unused4]
[unused5]
[unused6]
[unused7]
[unused8]
[unused9]
[unused10]
[unused11]
[unused12]
[unused13]
[unused14]
[unused15]
[unused16]
[unused17]
[unused18]
[unused19]
[unused20]
[unused21]
[unused22]
[unused23]
[unused24]
[unused25]
[unused26]
[unused27]
[unused28]
[unused29]
[unused30]
[unused31]
[unused32]
[unused33]
[unused34]
[unused35]
[unused36]
[unused37]
[unused38]
[unused39]
[unused40]
[unused41]
[unused42]
[unused43]
[unused44]
[unused45]
[unused46]
[unused47]
[unused48]
[unused49]
[unused50]
[unused51]
[unused52]
[unused53]
[unused54]
[unused55]
[unused56]
[unused57]
[unused58]
[unused59]
[unused60]
[unused61]
[unused62]
[unused63]
[unused64]
[unused65]
[unused66]
[unused67]
[unused68]
[unused69]
[unused70]
[unused71]
[unused72]
[unused73]
[unused74]
[unused75]
[unused76]
[unused77]
[unused78]
[unused79]
[unused80]
[unused81]
[unused82]
[unused83]
[unused84]
[unused85]
[unused86]
[unused87]
[unused88]
[unused89]
[unused90]
[unused91]
[unused92]
[unused93]
[unused94]
[unused95]
[unused96]
[unused97]
[unused98]
[unused99]
[UNK]
[CLS]
[SEP]
[MASK]
<S>
<T>
!
##!
"
##"
#
###
$
##$
%
##%
&
##&
'
##'
(
##(
)
##)
*
##*
+
##+
,
##,
-
##-
.
##.
/
##/
0
##0
1
##1
2
##2
3
##3
4
##4
5
##5
6
##6
7
##7
8
##8
9
##9
:
##:
;
##;
<
##<
=
##=
>
##>
?
##?
@
##@
A
##A
B
##B
C
##C
D
##D
E
##E
F
##F
G
##G
H
##H
I
##I
J
##J
K
##K
L
##L
M
##M
N
##N
O
##O
P
##P
Q
##Q
R
##R
S
##S
T
##T
U
##U
V
##V
W
##W
X
##X
Y
##Y
Z
##Z
[
##[
\
##\
]
##]
^
##^
_
##_
a
##a
b
##b
c
##c
d
##d
e
##e
f
##f
g
##g
h
##h
i
##i
j
##j
k
##k
l
##l
m
##m
n
##n
o
##o
p
##p
q
##q
r
##r
s
##s
t
##t
u
##u
v
##v
w
##w
x
##x
y
##y
z
##z
{
##{
|
##|
}
##}
~
##~
о
##о
е
£
##£
##е
¦
§
##§
а
©
##а
«
##«
¬
##¬
®
##®
°
##°
±
##±
²
##²
³
##³
µ
¶
·
##·
и
##и
º
##º
»
##»
¼
##¼
½
##½
т
##т
н
##н
с
##с
р
##р
в
##в
л
##л
к
##к
м
##м
д
##д
п
##п
у
##у
ы
##ы
ь
##ь
я
##я
б
##б
ч
×
##×
##ч
з
##з
г
##г
й
##й
ж
ß
##ß
à
##à
á
##á
##ж
х
##х
ш
ä
##ä
å
##å
æ
##æ
ç
##ç
è
##è
é
##é
ê
##ê
ë
##ë
ì
##ì
í
##í
##ш
ю
##ю
ц
ð
##ð
ñ
##ñ
##ц
э
ó
##ó
ô
##ô
##э
щ
ö
##ö
÷
##÷
ø
##ø
##щ
ф
ú
##ú
##ф
П
ü
##ü
ý
##ý
##П
В
##В
Н
##Н
ā
##ā
С
##С
—
А
ą
##ą
##А
ć
##ć
К
##К
č
##č
–
О
##О
И
##И
ē
##ē
ё
##ё
Т
##Т
Д
##Д
ę
##ę
ě
##ě
М
##М
Р
##Р
Е
##Е
Я
##Я
Б
##Б
ī
##ī
Э
##Э
У
##У
ı
##ı
Г
##Г
З
##З
Л
##Л
Ч
##Ч
Х
ł
##ł
##Х
Ф
##Ф
ъ
##ъ
Ш
##Ш
Ж
##Ж
Ц
##Ц
ō
##ō
Ю
##Ю
і
##і
…
Ы
##Ы
Й
##Й
ř
##ř
Ь
##Ь
ś
##ś
“
”
№
##№
Š
##Š
š
##š
Щ
##Щ
•
##•
ї
##ї
Ё
##Ё
є
##є
’
↑
™
##™
́
##́
„
##„
−
##−
Ъ
##Ъ
І
ż
##ż
##І
€
ž
##ž
##€
ѕ
`
‚
##‚
→
##→
ǐ
♪
ў
##ў
Ѕ
●
ѣ
##ѣ
Ѓ
‘
―
α
##α
Ђ
ə
##ə
ɛ
##ɛ
☆
ј
##ј
‑
ɪ
##ɪ
Є
##Є
づ
ґ
ρ
##ρ
ѓ
λ
##λ
Њ
ε
##ε
‹
ο
##ο
ا
##ا
Џ
←
##←
π
##π
ς
##ς
ˈ
##ˈ
ː
##ː
★
μ
##μ
≈
##≈
‡
█
τ
##τ
י
##י
‿
̲
►
ו
##ו
ل
##ل
ν
##ν
Δ
##Δ
َ
##َ
ι
##ι
，
##，
ү
##ү
″
##″
م
##م
δ
##δ
γ
##γ
ה
##ה
的
？
。
Λ
##Λ
─
##─
β
##β
ל
##ל
σ
##σ
ר
##ר
ә
##ә
κ
##κ
≠
Ї
ω
##ω
ُ
##ُ
ת
##ת
א
ά
##ά
έ
##έ
##א
و
ί
##ί
##و
ن
##ن
ツ
ر
##ر
ב
##ב
φ
##φ
ي
##ي
η
##η
θ
##θ
מ
##מ
↓
ө
##ө
′
##′
ْ
##ْ
қ
##қ
♦
ِ
##ِ
！
ό
##ό
ש
##ש
Ћ
ب
##ب
■
我
υ
##υ
♥
≤
##≤
ְ
##ְ
学
Ќ
ஜ
ه
##ه
נ
##נ
ד
##ד
ָ
##ָ
†
##†
）
##）
数
≡
一
（
##（
▪
√
出
ಠ
∞
你
ע
Ў
##ע
社
د
##د
十
版
人
##人
ם
##ם
ғ
##ғ
س
##س
ң
##ң
##то
##но
##ст
##ро
##ен
по
##ет
##ра
##ли
на
не
##ко
##ер
##ть
##ль
##ва
##ни
##го
##ло
##ри
##ла
##ка
##на
##ны
##во
##ем
##ки
##да
##ся
##та
то
за
ко
что
##ти
##ак
##ре
##те
про
##ени
##ле
##ди
ра
##ви
##де
##ми
это
##не
бы
мо
##ля
##ру
##мо
##ма
во
от
##бо
до
со
##ес
вы
##до
##чи
##се
при
##же
##ча
##по
##ци
##ста
##сь
##ры
##си
го
##ве
##сть
##ей
##за
об
ка
##ку
##ну
##ду
##сти
но
##сто
##му
как
##ши
та
##льно
из
##со
##ют
да
ни
все
##хо
##па
##лу
##ше
раз
##га
##ще
бо
##ги
##ере
##жно
ре
##ный
##ту
##вы
те
##ме
##ные
##са
де
##ня
##енно
##пи
##ень
##ты
По
##кой
хо
##ется
под
##..
##жи
##ения
##че
са
ва
ма
##вать
так
##би
##чно
кото
##лько
пре
##гда
##щи
бу
##ных
##сли
##ение
##жа
же
##вер
ли
##ря
па
##ств
##дно
##ут
##бы
для
сво
##зо
##бе
##шь
##ски
##чес
##лю
ста
##дет
##ско
##ная
си
ме
ст
##зи
ви
ми
лю
##мен
сто
##мер
...
##вно
зна
##пе
##ке
се
##вет
##ша
##рем
##мы
##жет
##ды
мен
##об
##ного
##тер
##про
он
##ться
##ят
##ез
На
##каза
##ство
мы
##сле
или
##ров
есть
ин
которы
##ос
пра
##ба
пере
ты
если
ве
##зы
вс
дру
рас
жи
##ной
че
его
##ния
##гра
Но
##ска
меня
##лся
##тель
боль
ну
##гу
##тся
##нима
##ции
##пу
только
##ние
##ему
уже
было
нет
оч
##ным
##нов
пер
##ков
##00
##лы
Да
су
Это
##тельно
##ха
кон
ку
ру
Во
рабо
##су
##ву
##том
##пра
ис
##зу
##он
ча
пи
##бу
они
##ор
##er
Не
##ете
там
просто
##ща
##ца
##вля
будет
##ком
##чески
##дь
ком
пред
##бя
##тов
##ан
врем
##ран
##ходи
мне
когда
можно
##лось
##осси
дол
им
##сы
очень
воз
##мот
вот
##лись
##фи
их
##тому
##рет
может
##рова
##ар
##це
##ства
ро
чтобы
##ное
##ную
слу
еще
##ром
##лове
##кра
само
чем
гово
ду
даже
##пер
пу
дела
##лен
##ющи
был
полу
после
эти
##дела
##ot
Вы
##ция
таки
##зна
##шо
оста
без
стра
сло
##стви
##вой
одно
лет
##при
##ются
челове
##рой
Ну
она
##кого
кто
оп
##лей
##сно
ба
Росси
нас
##кая
##йте
Ко
фи
##дин
пла
ско
##сту
##сте
поч
##рти
##уч
быть
).
##ена
##лем
То
где
ле
##кти
За
##вто
##тя
ди
##зыва
##обще
этом
тоже
Если
="
Про
му
чи
##ешь
всё
прои
вер
##ственно
qu
надо
пол
20
##лее
quot
##час
интер
том
##чита
##дер
##ейчас
время
кра
##кое
##лась
##жен
которые
тем
Ка
сдела
##нь
##ству
##жда
Что
##ский
##ит
##дни
того
Мо
хоро
##нее
##стоя
мог
тут
".
##тно
Как
свои
каж
##чего
##ально
##кто
##ными
##клю
больше
##вл
обра
##ета
##in
работа
##цы
этого
##ней
##вя
гла
случа
буду
##ном
##аль
поня
чу
##нии
ту
##жу
говори
вообще
##вали
##стро
сказа
##сов
##пол
##зво
При
Так
##сло
##кры
10
##вая
##пы
много
##вый
##есто
##кт
##мет
бе
вз
##вые
##вает
##an
##on
##писа
кла
##дей
спо
##чу
гра
##ять
тех
##кие
сов
##дя
##ской
Ва
жиз
##ин
вопро
име
##можно
была
##вал
день
##нечно
##тра
вас
##ник
Со
авто
дума
##щё
который
вам
##дар
иг
##ении
##дел
##она
луч
себя
##стра
ки
были
##at
Хо
##ствен
помо
##ких
##чем
голо
Вот
сейчас
##смот
них
##жд
сра
##вить
##дите
##соб
##логи
ло
сер
##гла
пока
),
##ника
##сты
фо
поли
нача
понима
##бра
##or
друго
потому
##вых
##бира
##ar
##чь
сле
нужно
га
##тив
##ского
##бой
ничего
##шу
интерес
проб
Ты
более
ее
##хи
##ены
##ред
##зова
всего
##рт
##лет
##кс
этот
##ов
ещё
Ра
">
##вши
##фор
##нут
##ению
##доб
це
##род
19
##рен
",
##торы
объ
года
##ге
##став
##ить
дей
други
##цию
пло
##en
России
##гля
##шей
##ёт
##юсь
##лли
##ваться
##поль
дет
##нет
Ни
потом
тебя
один
##ками
Бо
Он
##дят
..
почему
прави
Та
##дом
бес
всех
него
##стью
##пла
##ск
##ских
зако
##ал
##ол
##кла
такой
##ел
доро
проблем
сторо
##перь
##ерез
пр
##ом
##ден
##реть
исто
Ма
##лом
##рии
##ений
##вое
##ники
вес
##вают
##пример
Все
получи
ла
конечно
##стре
##ские
себе
именно
##сси
##чет
##ём
##ением
##спо
ти
вла
этой
Мы
##мента
От
счита
##чки
##сем
re
##рма
знаю
ника
##al
Нет
ска
##мент
##ках
виде
##ню
##дить
ор
##бли
##ат
##ний
##ил
##десь
##тор
##сла
##ед
какой
##вого
##сколько
кру
тер
##фе
нам
##от
##ой
##ик
исполь
##чит
##дна
##ии
##un
людей
##ровать
##ене
##дов
отно
.-
соб
через
##пре
##этому
человек
##рави
До
##ху
##ев
поло
спе
##емо
##ях
##ru
##вед
люди
##гово
возможно
ответ
##емы
##стно
##льный
лучше
201
##__
смот
##ман
вся
##))
##кий
##яс
##йти
нем
##ам
##вания
##зда
##им
фото
##ления
тебе
##ий
игра
год
##ек
Пу
##ия
##роде
##ич
##чина
##ив
чего
всегда
##его
обо
действи
тра
##re
долж
##лов
гру
##нно
спа
##тери
Са
##it
тре
##he
##виа
##нуть
отли
кре
ему
выбо
##рю
##жение
##ников
##рая
могу
##st
##ходит
##дит
прав
##ья
##тин
##ент
два
тогда
##ью
##шение
##тия
##ую
##вод
##ема
##зя
##грам
##ших
будут
##ставля
такое
случае
би
здесь
делать
##шки
##ого
##ая
##ис
маши
##слу
##лек
всем
хорошо
##ель
самы
##их
пы
Те
##кан
##стве
тру
пар
дело
дан
##ская
##теля
обы
##нд
##льта
дви
теперь
##ие
свя
##сибо
##льше
##вра
».
##жду
##кую
##еха
##спе
сист
рус
##жения
смо
##будь
могут
##rue
##вается
вой
##дели
##рь
доста
##лез
##мери
##мни
кро
например
##ряд
вопрос
место
нау
##ig
##цев
##туры
##дня
##id
true
уби
ref
##стати
##цу
сами
комп
ок
##ир
пря
ху
//
##ступ
больши
ан
##али
неко
15
фак
сам
ос
парти
##вание
##шел
нибудь
##ур
Из
ар
пе
её
##льные
##тели
фор
осно
##нова
##дать
##точно
##три
##сс
пример
Мне
##цо
##шего
##пло
##вом
либо
##чный
росси
сделать
тво
##щей
##le
эта
##мина
теле
##из
##чение
клавиа
Они
жизни
произво
пор
высо
ведь
получа
вра
мно
##тура
##лага
свою
##жать
##деть
##ок
иде
над
три
любо
##пера
##дума
##щем
##om
несколько
поль
##вым
##цион
##ic
хотя
##зе
##ист
нико
Ми
##туа
##вро
кар
стоит
##еры
созда
чита
##шения
##ван
##ление
##рабо
уда
ге
##ети
написа
##шая
##рия
##дол
кор
которо
совсем
орга
##!!
норма
##льных
##ности
##собенно
##чка
##фо
:)
ха
суще
обла
такие
##щего
##кро
##ход
госу
##краи
##номи
мой
самом
##рав
посмот
##мени
ци
##мой
против
милли
фа
вто
сразу
##свет
специ
эко
##чество
эту
времени
полити
##блю
##чен
государ
##стави
##тро
момент
##ери
другой
##телей
филь
##рода
кри
вос
##шли
между
##цен
##вле
##воз
бра
занима
##лаго
точно
##ющих
Или
опре
##el
сказать
году
видео
уж
тот
сем
жизнь
##гли
##шло
##вести
##нить
стро
Ро
##der
расска
##шка
уров
##нк
##ток
»,
позво
уча
##ким
##чить
бли
##нок
##енной
которая
Ре
##обра
##ваю
кого
мас
стол
##еть
тя
##прав
##вное
##нови
##зм
##тить
##рот
смы
##ас
ша
##оз
##ском
##ключа
##вари
##ющий
##жем
согла
скоро
##нача
деньги
##рую
##той
весь
говоря
кос
##ческая
реши
##риан
##лки
##бор
чер
##вай
слова
ней
##чку
шко
этих
##нный
мене
человека
никто
Украи
пыта
##дут
##hun
##зульта
##ческие
сви
ры
откры
##льного
прода
##стов
мень
глу
экс
кажется
свой
должен
##дем
деле
результа
##ющие
спи
##форма
нуж
##СС
какие
##ид
##уд
мало
одна
своей
##ША
12
почти
хоть
лично
Поч
##ад
стать
##дой
Для
ситуа
значит
ак
##гре
зая
##рон
кни
Го
##нию
##as
этим
США
поя
расс
##ческой
руб
##стру
##зад
моло
##ht
люби
лишь
жен
пот
##купа
##пусти
##сом
практи
совер
Ве
##руг
равно
##лон
изве
##ПР
меся
око
начина
назад
Ви
сред
Она
##ro
Ста
##нять
должны
обще
##бер
##am
програм
##лект
##льной
хочу
перед
Па
##шать
следу
ог
##щая
достаточно
некоторы
похо
очере
явля
##прави
##щения
##th
многи
св
##us
стороны
реально
##сп
также
##тки
сту
попа
думаю
##вление
гу
дома
##кам
уста
##яза
##чные
##дый
ква
плохо
полно
сли
никогда
##ность
Спа
##виси
послед
Под
мн
действительно
Ли
##чения
кол
хоте
ум
##ложи
##еты
хва
##нем
вариан
##il
сколько
##дной
##ol
##чная
##нер
показа
Де
##ири
гражда
##ать
##вую
совет
прово
##льное
упо
##ческих
поэтому
писа
##рить
наде
##ствует
##правля
##крет
Почему
сказал
вне
##твер
Может
вроде
##стран
##ён
##вления
сы
],
##рован
##es
id
РФ
подсвет
##циона
сего
##ква
ги
##рами
Когда
##сл
##лин
ради
наз
органи
навер
Ин
##ческий
##вайте
##оп
##ший
большо
сме
100
подо
Хоро
11
##ac
дву
таких
гар
лег
##hunder
30
проц
##графи
Thunder
осо
которых
##стей
##X3
экономи
сти
ThunderX3
непо
благо
понимаю
имеет
свет
##дина
##полне
меньше
##щение
##пуска
##ad
##is
особенно
матери
мак
зада
##нием
##сут
проис
проблема
дер
##жал
##мя
ды
##рта
поддер
уди
которой
сегодня
Только
называ
офи
##ed
удоб
усло
куда
##нци
##ента
##дра
части
Ки
##него
других
##рее
##бро
##льная
выгля
оказа
Мос
##строй
пси
наш
##мерикан
коли
##уб
##раз
##ружи
ри
жела
##сса
##щий
200
Спасибо
##ight
гото
##луй
выше
своих
мои
##следо
##ur
гей
обяза
отде
50
россий
уви
недо
##вной
##ами
одного
ад
давно
##ждения
собира
деся
Россия
ря
##ах
информа
Есть
тор
объяс
успе
бан
##чие
нрави
тыся
пово
кли
##ее
закон
часто
##енные
разви
Ду
право
оно
##лень
компа
##льзя
учи
##фон
продол
##рах
чув
поста
##жалуй
##пить
такая
##вели
##щее
немного
зо
##аз
места
##ффе
провер
гарни
зем
эт
##ССР
##пр
стран
##зом
ваш
часть
сл
##лия
мину
одной
внима
соврем
обычно
ним
##ое
элект
призна
зачем
Просто
пой
##рей
повер
вполне
##куда
##лн
##казыва
##чных
##роб
пара
##ница
цвет
##нали
Бу
##нец
##вез
сот
##вала
срав
укра
##шенно
прекра
ино
СССР
язы
подоб
способ
сла
карти
уго
типа
пода
мони
##гов
запа
;&
##рак
##сить
##ган
уни
туда
еди
см
говорит
Поэтому
the
##ствие
##щу
##вный
внут
попро
##лок
ссы
обе
##хва
дене
тро
Си
##ций
##цией
##ским
рак
ЕР
##шком
##--
##ing
каждый
дово
забы
вме
режи
женщи
##нологи
##рит
##ленно
Ла
аб
##ните
##ov
чуть
Там
прият
##тан
##____
заме
состоя
свер
##щих
сре
##тие
такого
##пли
сте
##ум
сю
должно
понял
необ
##дко
##ерт
пос
свобо
##ям
опы
сильно
gt
##тые
##фа
##стер
све
Ку
узна
ули
американ
18
##рения
мире
защи
##ково
спра
можете
кстати
правда
##жо
##ваем
каче
##тами
исклю
оши
встре
##кус
нельзя
пост
##нения
прямо
##нул
интересно
тол
Кто
25
работы
кно
ей
Зна
##зиден
##ями
##пере
##тора
игро
##мов
##пута
Лю
побе
страны
сери
менее
##шен
покупа
увер
##чать
процес
##дает
##im
игры
кроме
##нах
##что
пару
мир
##шла
мя
##нес
месте
##лан
нравится
этому
неза
види
замет
груп
дальше
Ско
минут
слы
тому
##имо
находи
эффе
принци
##av
##или
##ляр
##et
##ляет
....
После
решение
мет
Хорошо
эк
##ёл
Бы
Даже
14
коммента
вели
##йн
##ch
##чат
##дель
Раз
##рко
насе
##мню
##ай
нее
##шно
##есь
##ющим
Вам
муж
##место
гор
##тят
настоя
малень
ск
##ял
##ых
##ктор
общем
##лый
предпо
##дро
##еме
мест
##нами
##ское
мини
##гру
кур
Моск
##тит
работать
неу
сим
##рите
уч
бро
##idth
##рам
власти
##ответ
##ческого
нео
денег
услови
работает
здо
Еди
смер
самое
одни
постоя
собственно
##тай
##дви
##шие
##ut
##ала
;&#
ши
реб
##роят
##ые
всю
##тите
Потому
серь
##зин
Сейчас
од
##ян
необходи
##рел
##страи
Пер
таким
другие
двига
##чень
помощ
##держа
##шку
##чеви
##жешь
##моби
Ме
уг
опять
Хотя
##ством
детей
##ёр
##чей
истори
##зма
##скую
любой
двух
сама
лу
##ый
##рито
причи
использова
нару
цен
##рок
##дера
случай
he
часов
##ступа
кварти
ново
является
кому
мар
##лит
Су
проти
##шает
00
##лют
Жири
какая
##ним
красо
##вном
##тельства
рублей
##бло
насто
##нав
##ie
краси
стан
##сколь
##чик
##ье
##пери
##чное
##шим
##дил
##жки
своим
##чной
огром
поме
своего
сп
найти
##онов
вместе
вол
скорее
##ПРФ
друг
соци
приходи
##чо
большин
##зации
совершенно
##тый
КПРФ
##ус
технологи
тран
##ion
край
первый
физи
##лять
поз
##пита
##гули
моз
микро
жа
говорить
##кли
##дал
террито
##помни
##зывать
пои
##ходят
##нки
доба
##енси
##тина
##ктивно
фу
##тера
могли
хочет
##них
##грани
идет
##еспе
##мом
##тах
##рат
##вили
говорят
спро
##20
привы
##рий
##вил
представля
небо
##сили
поряд
##пки
##чек
котором
смотреть
около
дере
долго
##кон
распо
кры
шту
##ктив
##рует
ал
##терес
##бот
город
##ьют
стал
глаза
слишком
Ба
##щие
##еп
Ле
партии
Мар
Пи
##ходя
практически
##os
##ставить
граждан
##сен
примерно
наблю
вместо
мыши
##нят
невоз
сооб
##ун
##==
##ьте
##ым
))
##жите
##там
##дали
##енное
##ску
собой
Об
Кры
правильно
##nd
космо
отве
ито
##енного
проду
##ницы
##леко
использо
пон
##тий
##ag
рес
доказа
##полни
##стой
##дка
ше
мощ
конкрет
проблемы
Евро
знает
народ
"?
Ан
##ждение
стране
безо
ид
потер
понятно
коман
##реб
шу
взгля
жить
40
сложно
##ik
Им
##вший
##воль
##ствия
##оне
играть
##лав
важно
плю
спасибо
##аб
ав
уме
соответ
##меня
width
height
!!!
##od
##ir
##каз
Воз
запи
##тон
работу
##нди
Че
состав
автомоби
##ственный
##еш
которого
украин
##жалуйста
разные
выра
##нал
быстро
##ина
##пасно
энер
появи
иска
должна
деше
##дного
##пара
##хра
каждо
опера
##лить
большой
##руют
##чного
##дж
##льным
##ньше
тяже
мага
000
коро
образова
рай
Пере
Кстати
##дитель
города
логи
относи
реги
разре
фотографи
##думы
обеспе
##чер
##дили
##жит
противо
##ющей
зву
комму
##гры
##дете
##вших
##жении
диа
Одна
##читы
Еще
##лые
очеви
##ятся
##джет
евро
##тка
16
видел
настолько
раньше
##нам
##дки
##хов
Ру
##хода
##клады
##ваются
Вс
##).
##враща
##енных
образом
жив
обсу
стри
количество
посмотреть
непри
которую
столько
наверное
ап
##все
##шем
президен
зависи
вижу
попы
##шал
конце
первых
второй
довольно
##лены
ез
деву
демо
of
дня
комплек
проф
##лка
Ди
##менты
приня
##мое
Где
возможность
##вался
13
хи
##деля
друга
нач
##сит
знать
##чешь
##чает
использу
##сил
вашей
Гос
друз
бю
##док
##нка
живо
пропа
##ера
##ект
закры
Пре
##струк
Бе
убе
##дают
##есси
##брать
бер
##пил
##волю
##рту
возра
един
невозможно
##мах
##вар
беспо
##еб
60
разных
##наче
##тых
сай
##ставка
свое
мол
##рый
известно
той
##лог
##дио
##солют
##мум
хотел
##шься
Можно
сосе
полез
##ститу
##гой
Тут
столе
моей
снова
Очень
ува
##нг
##туру
две
##ствовать
доку
##так
описа
##ata
тысяч
меди
понрави
станови
вок
##ay
связа
знако
Теперь
най
##зов
подума
част
съ
удо
Жиринов
##аг
посте
##шую
##начала
##зывает
##мости
##нные
##фер
##ске
тек
##лета
##енный
раза
Кон
##ешься
##емон
##сона
##стри
вд
##тать
происходит
##жей
##рос
голосо
##тельство
сих
##ТО
##мена
утвер
тон
Например
##ётся
отсут
##жде
##пей
Росс
пользу
##шек
90
понять
никак
настро
Вла
преступ
##пад
перес
конку
Алек
##кова
наши
самый
##чется
пиш
##бить
моему
помню
повто
##гии
некоторых
##альные
Прав
стали
##над
монитор
принима
##тельный
##езде
##чную
права
исследо
полностью
##лова
которое
контро
##цов
##дова
Га
##чительно
стало
Дума
##ио
?-
17
##сков
вариант
Лу
##ent
##гом
сделал
биз
##баты
##ссо
пози
оби
пора
миллионов
##гать
убий
собы
отказа
мнение
##iv
##жной
далеко
получается
мето
замеча
##руп
куль
объе
##говор
дво
##врем
in
##тает
НА
##лами
зап
которым
верну
##шее
взя
##дну
произо
##стить
##зить
##бера
##ub
##помина
##зер
чтоб
##лё
##ap
ана
##цени
Всё
AI
##жить
##того
##лер
психо
##вес
разу
работ
войны
##дний
техни
моя
##ющая
каза
дороги
знаете
извест
предо
Пока
##вок
включа
клавиатуры
##тур
Правда
##чера
простран
шо
наших
##80
пусть
##тая
цент
какого
производ
иногда
##ровая
##тии
##анта
абсолют
напра
прид
##кси
нашей
Тогда
##йтесь
серьез
##ец
исп
неболь
##ссе
Гер
окру
определ
нормально
никакого
сни
меха
вопросы
##уз
рассказа
##лой
впере
ограни
делает
предлага
##стан
##дешь
забо
арми
##лых
##ила
мной
нена
гарнитуры
##лад
##вшие
##есс
##нение
##??
слово
##влека
##мера
кило
##рудни
AIR
многие
##ул
?"
##готов
Се
data
пенси
какое
попу
##жный
##ана
##выми
##служи
измени
ожи
##вного
##ант
Вас
анти
##тных
ощу
to
сообщ
нужен
##тельные
проще
никаких
ны
##нан
план
Путин
неда
всей
Конечно
рели
##чным
начала
дли
обеща
Ти
##лку
199
истории
##ели
прин
##ими
##лена
##рд
участ
установ
силу
депута
##голо
Пар
##лас
форма
сол
##ился
Сер
мед
случи
использовать
знаешь
родите
вокруг
##сок
##ческое
##цей
вещи
особо
круп
км
##разу
оружи
##орт
сча
отношения
стен
специально
пров
прот
##вето
##рачи
##em
ошиб
сможет
постро
легко
##фици
##жды
вами
итоге
."
##нус
##тельная
редко
речь
##раб
говорю
##мати
##жает
##вич
##буш
переда
одну
получ
##тный
ужа
зак
##ара
офици
##кар
##няя
шта
##ации
?!
сожал
говорил
##туре
##гами
каких
##раздо
##––
дает
##пон
##ики
##дии
наро
##бря
##кре
холо
вероят
##дами
##ух
##ологи
кино
мира
ль
##яз
факт
##лях
пожалуйста
##ится
счет
##чее
материа
Зем
##ины
расп
##инг
прод
нес
руки
нако
194
##ak
переста
заня
##тесь
довер
##ливо
##тельное
##ницу
сум
чет
##зд
ними
##зор
##стом
одина
##ровки
зара
##пря
##писы
зат
разрабо
сожалению
##хе
пес
##ow
основном
геро
станет
самые
колле
##пили
##скор
нов
##ходить
постоянно
поводу
электро
рядом
источ
##енная
зар
сюда
##ровали
буд
многих
##ьютер
жур
полови
##рал
комна
самого
пл
тео
неде
гейм
выбор
##тные
стре
##спорт
чём
крас
доб
дости
##зон
требу
делают
вторы
нужны
##вест
выво
##чок
##дах
фильм
##зии
ус
кабе
##гает
##публи
тр
долла
произ
Кра
ист
образ
людя
##um
##ьи
прошло
получить
##чества
будем
##щую
англи
большие
нужна
стар
##рети
становится
нали
Ст
##прия
поверх
месяц
##обо
ситуация
новый
встреча
близ
##руется
ори
ию
перио
##тили
род
публи
зрения
фе
национа
##ce
числе
рек
##сах
стала
ваши
Пр
Ал
st
возду
любого
Пред
##втра
цвета
##ab
продук
дней
разве
зарпла
хочется
беспла
##ук
##зать
гораздо
вдруг
треть
##ou
видно
хуже
вста
сотрудни
макси
##цами
зав
##шники
##емые
##гло
лиш
одним
##ющего
##вались
верси
##чке
цена
отре
дети
харак
коммуни
)))
каждого
Дж
иначе
власть
общ
вид
поможет
##нных
##тное
бывает
точки
либера
##лож
Му
##ly
##лик
дом
другим
##стя
похоже
представи
пиз
##рим
находится
##пози
некоторые
подроб
ночь
##ора
указа
история
гря
##тым
Герма
##ровал
ам
##фт
##вре
Ха
мор
представ
бло
умер
##iew
##зация
система
проек
среди
стола
страш
области
хозя
##лете
измен
обязательно
##вобо
приш
двер
##рать
подтвер
вет
##тики
80
хочешь
Ком
##50
##печат
##еня
Путина
служ
##ждать
Зачем
перево
купить
наи
отра
китай
кам
дерев
##нули
прое
взять
требо
Соб
##чил
решил
разли
##лая
пя
Пет
сторону
сек
праз
стоя
##деква
уто
порядке
мат
кнопки
видимо
откуда
##ова
выпол
производите
уче
наход
##роп
дея
групп
##мини
площа
##даря
##тали
##тей
сверху
внимание
повы
##ником
##льную
поко
##чёт
##тил
нарко
бога
смысл
уровня
ост
косми
##мос
команд
Вообще
##НО
можешь
программи
##дания
pre
##матри
главный
Однако
##12
четы
##тен
##лам
оте
Его
ребен
##ческом
прош
бюджет
кресло
музы
Россию
системы
##мый
##ческую
##яв
механи
поддержи
гаран
разо
обна
Потом
снима
спраши
хотите
;.
Пос
##мых
##емся
главное
зво
бума
циф
Гла
Надо
##енном
будете
специали
кле
уничто
выс
тему
ресур
##ика
##альный
лес
##рев
##форм
Влади
смог
серд
##жай
##держи
##жные
Украины
миро
##ап
##нил
ситуации
##мые
персона
Ар
такую
Один
влия
глав
магази
внутри
населения
готов
оправ
Навер
##циа
ибо
##art
Мак
##ёз
Сколько
люблю
бонус
другое
своими
вперед
and
##бята
каким
##ственной
##сят
запре
##фика
Ника
##ist
брать
захо
##кому
##тива
абсолютно
бом
пять
независи
смысле
сом
доступ
цены
макро
##пок
##мыш
##скольку
##кими
##ствуют
машины
территории
отправи
th
##бри
##нда
управля
##тельных
наушники
##оборот
искать
одном
спорт
##сю
Смот
обу
качестве
##лого
испы
##ческим
##хать
оцени
##ведения
.)
микрофон
.,
пом
##тика
мере
##виду
108
##нке
##60
неме
ски
##етесь
хотят
##D3
коло
##рое
##били
##og
поса
секу
распро
##....
цель
мер
минимум
увели
Кар
##дец
професси
отлича
Москве
компании
##груз
##нной
Фе
вторых
голову
##ff
##EX
ску
тобой
можем
##ter
##нятно
насколько
конкурен
##комен
##зь
клавиатура
##ec
озна
думал
рез
аль
##----
уст
198
##гия
упа
ат
##рию
упра
Возможно
связи
сначала
стандар
собра
##________
Украине
дел
очередь
##рования
дра
St
##нили
шут
##ссии
##тельности
##90
реак
##ехал
моего
##ственные
Вер
выборы
##читать
людям
тупо
работе
пути
вовсе
орган
##ген
21
уверен
Сто
##ясь
здоров
##нако
##ино
##кру
весьма
##НА
экспери
##пас
##дим
городе
написал
паль
горо
придума
спокой
соба
##ставки
будто
какую
##РО
внеш
##дыду
##тар
мета
al
демокра
кем
тепло
целом
приво
##жных
сделали
##езд
##рого
гарнитура
отнош
##ехать
писать
рей
Тем
приго
##ено
##вании
UC
##кну
##нин
начал
канди
пунк
Отли
шан
основ
пов
##йдет
##чая
пам
HEX
##ственных
строи
заво
отлично
изви
UC5
ED3
##бур
медици
игру
24
##сами
дополни
кандида
момента
неё
##вел
имеют
Интерес
Кро
оцен
##нит
##скими
считаю
нашел
вза
Чу
есте
газ
##view
##тел
##ленных
новые
впер
##ристи
##дится
##лено
существо
##альных
ладно
Ладно
!"
фанта
##щик
Всем
##жали
внутрен
каса
хватит
государства
мож
##юз
наше
70
большинство
##дные
гос
друзья
##ok
##нется
##стите
##рас
честно
финан
суб
пользова
мужи
##эй
Ло
##СТ
знал
запу
##дное
##ev
домой
низ
##ложить
##тке
вкус
##зву
##пом
ненави
рекла
Нико
##вало
##тельной
читать
##ленные
взгляд
##шить
Привет
Чтобы
##стика
непло
##**
##вшей
Без
руко
стоимо
##рование
ката
пле
Ис
##вляет
кораб
самой
Особенно
иметь
везде
##енера
##ктора
##мест
##дия
массо
##ному
клю
тка
англий
устро
прочи
500
жерт
##прос
сма
##рят
поле
вспомни
праздни
безопасно
##цам
оказалось
предыду
обви
preview
Ри
Рас
чис
мусо
##щать
мое
##ложен
орби
##ющее
##един
другу
ими
##ору
##чивать
Оп
Меня
идти
ЛД
Ведь
##реми
##временно
мыс
зу
197
##дный
##вшись
##жка
##зоваться
##чением
уровень
чисто
поро
реали
Думаю
##вшего
Ча
виду
##пор
наоборот
##ia
благодаря
завтра
принципе
##ra
##мира
##емый
##пов
##ваете
улице
скорость
тело
данные
выглядит
машину
зло
гре
народа
##ерс
оде
196
##скому
неиз
выда
##oc
##нт
##рил
автор
добро
##чис
капита
##олог
##гер
##ЕН
##кло
##ul
22
##мить
##вки
##торов
задумы
Именно
Ска
угодно
лицо
воды
##эр
##сторон
сро
коми
яр
Фи
дево
хватает
люб
##ствии
Согла
##ата
осу
Чи
такими
помощью
опла
##бенок
первой
##дения
193
остальное
самых
закончи
дают
меч
стара
реш
##щен
##рели
таком
четыре
##льном
годы
зам
жо
Сан
##ложение
##вяза
созна
##раж
чему
часа
##рово
аппара
##цеп
преду
##ственное
регули
выго
##шта
кад
объя
кл
помочь
##жку
темпера
##рук
впечат
анали
2016
необходимо
всяких
##бов
##клон
неделю
##цем
изнача
##пени
суд
##сон
Жириновский
##нку
уровне
существует
##дился
ЛДПР
##след
ниже
форму
сути
другом
сколь
настрой
Эй
сравни
разго
вело
##тим
очередной
бизнес
товари
мысли
погово
обратно
борь
##тельность
связ
уд
Дело
дать
вирту
выбира
партия
##ri
300
бое
представить
напря
ваших
выяс
занимает
втор
млн
окон
##санд
мело
согласен
##чики
разме
##рич
##чета
##бели
##вей
глаз
150
информации
радо
##енности
сда
менедж
возможности
ныне
пита
##сер
##op
последние
Доб
##тельного
маль
СШ
Оста
##жают
##гах
оказыва
##щает
позволяет
Боль
прочие
##фона
аргу
##гна
##кура
прекрасно
отда
##рин
заяв
!!
наблюда
освобо
поп
тел
нор
зад
хороший
акт
тю
диза
##хоже
##лл
Дру
сказала
##пис
след
удоволь
упомина
##жном
каком
##прочем
##яд
##ss
##дных
##вит
подоз
знают
другого
##принима
##бая
##юга
##тивно
##ментов
##ep
##шай
патри
##МИ
ото
##лах
мел
##дую
##вен
посту
простой
размер
телефон
##дже
##дёт
##предел
запрет
Наверное
##рад
опыт
любом
##тек
кожа
начали
Нов
##дох
страну
##тал
сайт
195
##ha
##рица
неск
Крым
##гина
Более
высоко
##никами
ребенок
одновременно
плани
Поль
восста
никакой
192
Алекс
Россий
заба
Этот
приз
##фы
золо
мужчи
прос
пришлось
сохра
##льт
##жется
##нице
законо
времен
составля
##емых
отправля
##лья
##АР
компьютер
Ничего
захва
умень
Александ
причем
помни
##17
фана
угро
##оло
##and
револю
явно
##сей
знаком
##мую
терро
##пада
##лина
получил
Кроме
##щим
Нава
пры
элем
пропаган
секрет
##жела
считать
сц
рассказыва
эмо
написано
##ох
первую
вод
дек
коле
конц
лета
##жаться
##мая
##ственного
##нюю
##стрее
популяр
свето
Ев
любы
историю
смерти
миллиар
интернет
недавно
первом
##нев
##ваний
##альной
##гие
сна
23
девай
всему
сель
##лке
условиях
удиви
ау
говно
интерн
##ванием
агре
зе
поку
решения
десять
решили
раст
пись
выход
вн
выхо
муз
зато
##пода
распол
гро
Больше
##оны
вст
##дание
винова
страна
зря
конца
поги
The
восто
Фран
##тной
мнению
##кать
неф
?)
остальных
сторон
пожа
причина
судь
супер
сел
преж
Гу
##эн
Чем
ун
солн
##смотря
##ственная
включая
функ
изначально
писал
пого
##министра
##няет
телеви
##кол
разру
##10
конт
##мм
поняли
уважа
191
гол
##фу
действия
долларов
##лле
конструк
раду
##рение
несмотря
##лла
Вели
своё
##енность
всеми
##ального
стати
поб
плюс
прив
государство
##ob
##навли
##бре
рег
##ились
##аров
нового
вып
цер
трудно
ран
##жели
скры
Единой
##жнее
ставить
твой
##ld
зи
##ехали
пережи
спут
ею
вку
##ложения
##мать
выступ
сообщает
##зем
хра
прим
НЕ
возь
ут
систем
эффект
##ковых
тема
атмос
##они
называется
остальные
тормо
##ведение
##лед
##ленной
выз
;,
##ует
поскольку
##ейс
избе
карто
##чал
посе
тради
##шке
изу
топли
ПО
крити
следует
хуй
получилось
##дца
иск
века
Здесь
спосо
Укра
провести
##КО
выбра
##рик
прет
отм
Авто
##щаться
немец
##грать
фран
мама
науч
напи
результате
затем
помощь
##чкой
идея
май
дета
Слу
ремон
курсе
рекомен
потре
недоста
разница
##вол
согласи
тяжело
ого
нашего
внимания
Коро
постави
взры
далее
алкого
бар
режим
ян
вчера
##хом
##нику
результат
##ka
пото
участи
##шите
первого
видите
устраи
случаях
##чай
прекрас
скорости
конф
европей
сказали
##илась
аж
болез
##чнее
Амери
посо
получится
комфор
##егодня
##пира
##чили
столом
цели
глуби
##бора
##чены
гром
парт
работают
бывают
оппози
##40
штука
##хание
зависит
голове
назна
час
искус
##дишь
сет
сен
##нная
сня
##альным
##дку
проверить
107
поверхности
книги
слов
Единая
моих
##ндро
роли
##емая
силы
придется
##РА
машина
потеря
Ага
##ленный
проя
##вь
Сегодня
опреде
век
ответственно
делаю
запла
тан
##интерес
##пле
Иг
мышь
нажа
жена
чемпион
##рки
наконец
Владими
##тку
полиции
##чий
сне
проте
##if
##енты
!).
бак
скажу
##ковод
Зюга
##альная
спаса
##ствую
процесс
##лев
фра
сидеть
сент
глубо
Кор
##лаг
увидеть
прибы
никому
рам
просты
##хран
кабель
##бом
планет
начале
##her
одному
##эро
Совет
##реза
состоянии
заг
зд
могла
подса
смысла
щел
имею
давайте
тай
помощи
##ключить
весе
процен
даль
Попро
##емой
##сипе
##====
верно
##жут
разбира
своем
##муще
последний
##лье
##телем
казалось
видеть
утра
пользоваться
##ванию
большая
времена
имя
##гар
класси
##альное
месяцев
рассмот
##оти
симмет
нема
чинов
##По
##шой
удобно
##стности
##щему
##гал
сердце
##писать
##...
печа
думать
случилось
##вов
побо
красоты
##дам
возвраща
##лым
дни
водо
приятно
центра
ясно
##стли
##лями
##нике
многое
кана
##гно
комплекте
гаранти
##чё
##пуск
##нного
язык
##вные
живут
зарабо
отношение
AM
догово
ребенка
!)
осве
дели
никого
##лежа
очевидно
задни
неправи
##тации
однако
##вка
##дьми
прочее
##bo
вк
Май
слышал
##рые
тыс
оли
##шед
путь
Их
##ету
Уже
##раи
бри
##ation
глупо
Интересно
превраща
самая
##шит
появля
новых
проре
боя
Собственно
Посмот
кр
узнать
профессиона
35
уб
странно
пробе
нему
##пно
##ъе
звез
разв
##таться
##ствием
Меха
номер
мебели
##ers
##шали
потреб
руковод
##пустить
##руются
едино
озву
парень
быстрее
##кта
метро
кое
Вол
Ту
месяца
маленький
форм
глад
неплохо
##треб
##вин
август
знаем
##работ
госпо
##валось
дура
##чиков
вечер
содержа
присут
опро
##стр
##гам
Лени
пишу
осозна
русских
платить
##ферен
определя
учены
голосовать
аналоги
инстру
множе
отдел
##пка
##аку
##30
успо
активно
солда
##невая
положи
##сюда
людьми
##ило
##ину
велосипе
превра
##ентов
##кои
##тельным
##енд
ракеты
кнопок
адре
сх
неве
претен
##чами
нынеш
геймер
полит
упомя
сбор
хотелось
гри
несколь
данном
нек
##льник
матема
разы
##валась
##жность
##няка
арм
##лай
вп
клавиатуре
Механи
выи
##11
напро
возмо
клавиатуру
##шёл
нагруз
фин
привлека
Какой
бере
юри
Значит
Люди
##новить
осталось
мышки
пят
2014
обой
##мар
Сов
проект
мора
нашли
дож
администра
начинает
##арь
##тически
##стях
движения
война
##нное
клуб
зв
##ВО
Давайте
апр
лица
Эти
эпи
##бую
##ace
##тная
##рючок
##аа
выборах
подс
##дная
##лосо
широ
Германии
работаю
исключительно
учиты
трех
корот
запуска
##дила
##мыс
нед
##гни
голоса
##тивный
##тего
игровая
следующий
настройка
подсветка
ноя
прям
##аны
пространство
подробно
Вто
утвержда
##чика
##нулся
##зра
px
##киды
##ваешь
##чении
##рыв
студен
##нта
##влении
##никам
Нам
герой
будешь
##бил
крайне
##жь
отрегули
междуна
##гуляр
##II
русский
дорогой
возник
кг
прико
универ
свидете
поми
выжи
привести
сюжет
подсветкой
дешевле
Луч
##ib
пут
мысль
##ваюсь
AK
##ственным
Фо
Какие
стиле
##шают
максима
##дож
программиру
обнаружи
показыва
##читал
регулировки
прожи
подсветку
член
75
сил
крайней
нами
бор
подставка
AH
##ыми
игровое
школе
исти
##ant
примеру
Лично
ассо
##рез
располож
Ник
квартире
объек
##фри
хло
##пах
##еди
##меется
кожаными
руково
пона
хле
говорите
нежном
сты
an
останови
ваша
паци
самым
примен
##ностью
##мость
бол
прорезин
зао
правило
подъ
замо
амбуш
амбушю
приходится
Ци
услы
макросов
##гл
услу
##вится
##ведливо
оконча
прог
AH7
написать
AM7
школ
AK7
Сам
горя
##йся
заслужи
##диться
бата
данный
выбора
id2
##енти
##стами
приве
беско
непонят
использования
зака
##вор
инжен
развития
электри
##але
подпи
радио
хими
читал
идёт
##eg
##бовать
матч
уро
камер
##доро
генера
карма
человеку
27
удалось
сере
Сле
копи
понимаете
плане
Изви
избира
Прави
##шему
##ришь
данных
привет
катего
сравн
##мин
службы
Самое
нер
мою
Пра
##гают
##бок
ваше
##шин
##99
бля
путе
религи
акти
##кви
##тво
Пло
##ард
##мат
##КА
касается
##льными
идут
мотива
##жная
Мой
уши
##ich
Ос
##кров
##мили
насчет
думаете
##шкой
##веде
##кала
принад
реа
##телям
армии
45
##шни
##la
типи
сопро
авиа
##ура
Эта
хотели
намного
Итак
##ллю
отрица
полага
иди
бабу
##менить
Анд
безопасности
Пол
цивили
масса
##пень
фильма
##дан
фаши
относительно
##тое
психи
##ort
кров
Ав
##ost
##бин
##пен
устрой
##пан
##нья
##ниц
##ry
Исто
недели
пог
;)
##ходы
Ещё
##луч
##рно
инди
--
метров
фон
разум
буква
##лети
28
##чено
средства
##стит
##тября
##влению
Челове
##рили
начать
##мым
прили
оба
##кин
мяг
данным
отец
позна
группы
веще
Ша
##рена
ужас
поез
убира
рассчиты
карту
прис
preview_
спокойно
расши
уз
Причем
чо
##кости
##пой
##гали
север
пок
рези
##терна
говорили
клу
ближай
контра
францу
света
##мор
Давай
класс
##ame
##менти
список
региона
26
пика
чувство
##сыпа
объяснить
гло
иностран
видели
##гей
##титься
произошло
живу
Нес
Пусть
Sp
##хуй
Наде
Ге
оправды
систему
##поли
прежде
общения
##датель
##лив
##лят
нечего
##ГО
##клад
информацию
Бер
Федера
взаимо
мясо
масшта
вече
ходить
Чер
поря
##обрет
огромное
on
%.
Через
##еров
##СА
зер
поля
наша
женщина
Никто
другому
##образ
Полу
компания
качество
означает
##дино
##няется
ага
##жением
соста
##ющими
сможете
жел
##мены
##делить
имел
##ева
чува
русские
уп
ген
роль
испол
взял
##вных
всякие
Би
вопросов
##нос
##вью
:-
Вопрос
покры
сосед
##леты
##зия
родствен
приходилось
##сток
мать
Гово
живет
##зора
шт
##ick
рассматри
##рут
смарт
Миха
##нести
##чём
Сразу
##драв
профи
##70
реки
винов
In
стоять
экспер
##тного
район
##чии
##НИ
отличный
баб
изобра
Пе
##стую
струк
телефо
сцена
неа
теме
став
пишут
for
аэро
##логов
число
дорого
лето
оригина
##чными
Ги
##роме
Никаких
##чин
первые
400
расстоя
##ано
##ЛЬ
суть
заниматься
СМИ
##ВА
управ
##кса
разобра
буты
опасно
делал
округ
##az
стоят
##нял
ситуацию
загля
древ
отмет
вклю
##ard
##вут
##бол
боро
выш
напомина
дире
декабря
окружа
вряд
##кор
бой
##форми
завер
2015
надеюсь
января
интересу
ай
название
поставить
новости
охо
ВС
##ляют
##телями
##ментом
##ive
мыш
##avel
напа
заряд
обеспечи
судя
предста
водите
возника
изо
исче
##шением
четвер
паро
##стая
##ложил
тур
яй
##жек
километ
разно
обсужда
##стями
земли
Украина
???
работал
разво
запад
научи
считает
##нему
семей
быто
##кали
??
2010
док
##голов
##рус
##евич
позже
##лении
вашего
графи
счастли
путеше
существ
увидел
любая
человеком
секун
возвра
инф
чест
пригла
1000
Жи
##per
штра
##lo
.—
качеств
идио
##ЕР
масло
дали
ждать
Стра
законы
Бра
##ляции
войну
##пят
обществ
Дон
действует
##пит
воду
Тебе
##ьем
привык
2017
##жим
марта
##порт
мл
заставля
некото
##щь
килограм
района
Рабо
прогре
поднима
вопроса
журнали
архи
потра
ехать
опас
гео
серьёз
правила
лез
продолжа
Европе
спец
##ота
кло
мая
оскор
считают
разгово
чаще
Кр
сентября
твое
##дор
##дних
годах
статьи
##14
##лений
вести
##стоит
##шил
новой
##ходил
##ёте
верить
през
##нности
событий
составе
перво
воору
словом
сайте
Влад
Сою
досто
##ang
президент
общества
заклю
период
бал
жаль
море
машине
##рек
делали
комментари
Каж
оружие
постав
Com
##гром
US
скажем
##ленная
мозг
ядер
alt
подру
Москвы
сети
##дение
ребята
отличие
##рка
##ЛО
желез
прибли
ев
самостоя
##_t
пожела
автобу
исключением
##лакти
отсутствие
президента
стены
сообщи
кап
ув
опо
##ЛИ
твои
гля
Трам
##ct
совме
жал
выглядят
энергии
пак
понимание
рейтин
Мед
районе
октября
суде
пишет
шутка
отды
побед
##енным
дорогу
##чия
распоря
япон
модели
##ковые
дал
одинаково
июля
мимо
другая
##дак
заодно
вни
рецеп
грави
##тяги
##ером
##есть
##гая
думаешь
##лением
направ
##вав
##ube
спря
странах
темно
стоимость
##––––
оказывается
##тило
##пус
##чник
санк
##рисо
бесплатно
сог
проголо
тела
ума
руках
бен
обору
сомни
отказался
воло
другую
технологии
##ill
дя
считаете
##коном
демон
экра
августа
##цах
правитель
доме
##13
##кет
##чном
информ
моде
девушка
безу
противоре
вор
##нина
готовы
купил
тюрь
расскажу
##жным
перев
приро
выходит
##оно
##фиг
пошли
ца
непонятно
##age
##дон
естественно
выглядеть
##ковой
аг
филосо
являются
Согласно
Бел
##меча
жало
тысячи
##альном
отка
показать
##инов
конкретно
оборо
кисло
##иться
доби
серьезно
нака
##ew
##лую
дороге
Разве
рассу
##атр
семьи
смерть
дизайн
современные
##ast
актив
держа
корруп
июня
расположен
условия
##крой
разговари
друзей
понимать
своему
прото
##коми
наци
бесс
робо
давай
твоя
случайно
##лика
нескольких
руку
роди
предполага
россия
войск
##сила
##тик
смешно
##роваться
хотела
ждет
фиг
адеква
серви
##ёшь
добра
##жна
Владимир
хозяй
покупать
комнату
куча
##нность
воспринима
##нула
неадеква
is
домаш
##est
##19
##йт
крови
сидя
психологи
ответить
Повер
фотографии
другими
показ
##our
##няют
##iz
отдельный
##тическая
##сор
всякого
##вная
избежать
заболе
допусти
наибо
пери
##акс
одино
##ver
верю
##a_
обойти
##циони
спу
Плю
апреля
##плей
##блем
поду
последнее
Впрочем
арх
ноября
рассказать
##льнее
Обы
срок
##лег
ноги
##мпи
желание
прем
неприят
зави
мин
удобнее
##енко
##лиз
мон
бана
внеза
полный
##ссия
ввиду
##илось
кат
##способ
ще
прич
##есе
гори
школы
предупре
женщины
##))))
дро
выну
##ация
исследования
соот
##слов
##мого
Ок
каждой
промыш
##править
обма
автомати
гер
повез
брат
Нужно
будь
##утбо
переме
##стья
модель
проигры
вин
текст
##мся
##rom
деятель
социали
любят
подготов
космос
местах
трав
Св
дороже
кот
управлять
альтерна
поговорить
граду
##нуться
пое
##бами
транспорт
диску
##рика
мамы
зависимости
производства
##ine
im
перспе
вашему
характер
##eo
##ix
лекар
Гра
##тую
##ud
##ходов
женщин
##чками
##новые
убор
наверняка
ябло
реальности
регуляр
приез
пья
фут
##ЕТ
пойти
террори
посла
био
бла
пасса
менять
##MA
салон
##пет
долл
##сед
полицей
Ив
##днее
сдел
которому
##жида
##18
февраля
чай
жест
течение
##енько
Александр
особ
дис
##15
заявил
опытом
sh
##ъя
носи
Также
##гент
##зит
##читывая
##ind
понятия
##вшая
лучшем
повторя
поза
##няли
оре
Ды
id3
понимаешь
ровно
гран
выска
##чника
##нутые
пыль
словам
##жено
достой
опти
центре
ночью
Ново
##лайн
сомне
##щиков
Каза
##кад
##льса
190
потен
хорошая
##лили
ближе
непро
эконом
новую
выборов
партий
установки
крем
отсюда
ля
##зировать
переры
Было
степени
теории
##дю
прошлом
ке
##реди
##туда
##интересо
##зацию
литера
имени
сокра
##щается
Какая
##жин
нава
поздно
HD
голосу
твоей
вечером
Сп
##ческими
сверх
дор
##рых
ох
##ell
участие
Зато
сделан
##мани
##жений
вспомина
торго
кучу
настроения
мешает
be
Поли
##МО
образования
##тором
бизне
никуда
оказался
сф
ярко
Ябло
евре
##лил
ков
рождения
высоты
магазин
улы
Нас
зай
##ime
кух
капитали
прока
бук
##лим
ока
##тным
мерт
##щении
пытался
чудо
слабо
пуска
Дол
сдви
Крас
первая
##ont
##влением
##циях
масси
временем
послу
##где
информация
рамках
##ey
длин
##пать
##преры
федера
российских
употреб
##част
Моло
значительно
##дном
пояс
цвето
##люми
##66
память
самому
хорошие
Учитывая
марш
бур
значи
результаты
выпуска
##ряз
красивый
события
хер
конец
сын
промо
погиб
ракет
руками
пришли
сообще
2018
##ЛА
причине
Ребята
пило
пяти
##чали
вре
предприя
назвать
пришел
Смотрите
##казать
пересе
шири
горизон
com
прием
взрос
комментарии
##тельств
##лец
Израи
программы
##фф
##жие
##емого
##льности
##ющимся
футбо
обуч
##льность
Ино
##тность
саха
интел
обладает
учеб
##гут
альбом
расстре
технология
институ
враг
##бере
спор
убить
культ
ата
##тельную
##дне
чьи
губ
центр
пройти
##дравству
документа
жили
автора
целью
цени
бред
гости
това
##канчи
шанс
##ack
республи
родители
измер
герои
##креп
моим
##кле
##чена
pavel
союз
улуч
2008
расследо
##тащи
пить
Рус
##димо
дверь
аре
реша
любит
##hunt
взяли
2009
забыл
##торые
эволю
Sh
положении
еба
##ела
пру
поиграть
##ват
##25
группа
##дным
Китай
##ходили
вышел
получили
##реп
##лаз
##суль
новое
##муля
дальней
выступа
##циями
Неу
кв
Российской
транс
мод
десяти
порта
отличается
создать
состояние
ранее
ссылку
##гада
удара
##митри
ошиба
pavelhunt
Фа
гов
##вным
лучшая
нап
отста
ассоциа
минусы
33
запо
яко
##тию
вещь
незна
стояла
Тур
организации
вашу
составляет
##ретий
запро
изба
сотни
##ланд
Ники
теку
словами
современном
вода
веру
однозна
##вана
испыта
2000
непреры
##тков
Зву
##влять
короб
##пку
2011
хорошего
первым
солнца
статисти
##Са
##нар
##мяти
Никол
алюми
##пределение
симво
рису
митин
%,
будущее
##бран
идеи
Лучше
##ите
Нью
наме
пытается
##ственную
##64
знали
концов
животных
##рина
развит
началь
##риться
тонн
посы
книгу
Земли
отключа
серии
жу
##ремя
бази
моби
просмот
##вку
Опять
Надеюсь
смотрел
##ip
существу
начи
молоды
здра
лам
уша
полноц
##мут
науки
несо
##лое
учё
прочая
##носи
класса
ожида
2012
строить
порядок
здоро
неуда
осуще
##бес
##пора
пласти
куп
единственный
суда
ответа
##ербур
волну
Каждый
пошел
худож
смогли
начинается
деятельности
добавить
Зюганов
утром
высок
##дум
моем
##деми
зарабаты
пала
Един
Al
32
личности
Пути
##хожу
подумал
стату
##началу
специальные
генер
плат
##под
страте
сравнению
мужчина
броса
прочих
вход
сва
##коле
КП
откров
##чиво
нез
##шили
долю
чёр
дека
отправил
##еру
верх
##кля
играх
##ьми
стр
трени
круто
успокои
стороне
##КС
остается
##НЫ
иллю
нашем
плохи
##илл
наиболее
##тона
##эт
распростран
справедливо
соверш
##ведли
##опа
##гаются
&#
встреч
медицин
вероятно
твор
страшно
беспокой
жителей
##out
##тыми
засе
финансо
прошу
ЗА
сегодняш
пти
##--------
##нным
моделей
изменения
##ИТ
реж
обойтись
##ватель
Ху
##года
##шайте
пеше
ави
основе
##ново
ини
ряд
Пла
Нем
Север
интернете
оттуда
наг
принять
родителей
апре
парке
##опера
##лот
##ини
Мно
##кал
еду
пассажи
Боже
закона
Много
смотрю
журна
столь
тури
начинают
##луа
##ствовал
......
оз
пусты
##эм
пун
тера
средств
переп
провод
контроли
Спра
поиска
Плохо
подозре
пункта
большими
лин
рынок
##стам
заказ
описания
##печа
впи
ДН
Аль
производителей
##47
ответил
кан
##честве
Дмитри
лит
комфортно
Гор
буквально
##стери
корич
дыру
##бовал
количества
попробовать
действий
памяти
Проблем
образование
пис
##ваемся
##хую
вон
разработ
ощущение
##тится
##оо
частности
софт
мозга
##вшихся
фотошо
бре
кача
отлич
попробу
понимают
##град
##чность
заранее
правительство
кадр
перевод
##щийся
счёт
теря
исключение
Знаешь
##ьет
Сначала
ссылке
##гию
##вато
показывает
связь
игр
предыдущих
моро
подка
добы
варианте
29
##лево
вво
подска
религиоз
разговор
расскажет
нрав
2007
играю
##рится
##жного
соблю
##доби
остров
Человек
семь
машин
Програм
форми
##рный
топлива
##ющихся
множество
##разо
эффективно
спас
блин
Похоже
оборудо
##вича
бит
авгу
##орети
заб
Москва
минус
син
документы
ПАР
ВВ
кофе
##дес
Отде
провода
..."
глубине
заши
un
сделала
нём
вызыва
##ющую
кибер
противопо
подобные
Кла
квартиру
презента
каждом
##ex
600
##енс
##вока
предмет
источник
пикабуш
Гру
смеш
##КИ
обез
цита
заде
##ax
лиц
ездить
##жны
помогает
##ёх
преда
партию
раскры
##порта
##кает
##бит
##вила
длина
Мер
##еся
Сред
русского
моно
##ash
скажет
##лям
креп
пове
соответственно
едой
преступления
находят
соответству
поэ
Ор
диск
фоне
ситуациях
боев
нашу
удивление
##стали
##нений
исчез
Огром
языке
##няться
##цом
##чих
##змом
принадле
Иногда
##кл
##ксу
##лему
ас
завяза
впервые
семья
наб
веду
характери
этими
неви
##щики
провед
памят
##рец
заре
производитель
Сла
полной
##зови
НО
карт
доказать
полито
Фор
##мерно
##бай
##ore
мощный
Видимо
автомобиль
посторон
вызывает
паца
качества
##ционные
стат
##69
версии
отвер
музыка
рад
##щают
нах
##ОН
контек
вое
развод
##ode
Точно
порт
Простите
заслуживает
##жке
заканчи
##гон
правы
##ваясь
любовь
Кри
потенци
##ON
пиздец
вернуть
охра
##вляю
большое
легче
приходит
спросить
трен
задача
Ваши
##джа
Моя
рассмотреть
ЕС
RT
движ
PS
обстоя
##чув
##one
минима
христи
##игры
дир
будущем
2006
большую
системе
##довать
еже
внезапно
##дцать
идеологи
могло
собствен
##станов
##ждает
управления
обслужи
резать
Вроде
##иса
##мана
at
столи
##плуа
Плюс
линии
производители
##жая
Джей
##словно
первое
попасть
##кст
желе
Сергей
112
Неко
выйти
##имуще
сму
189
моментально
мото
забывайте
случаев
годов
##нё
Откуда
##нера
мировой
Москов
##тился
кажды
.&
башни
политики
коопера
USB
##зой
тип
##ian
##тировать
##жат
##нас
заметил
загряз
бесконечно
Ленин
транспо
##ДА
Бог
комментарий
##ong
напр
откли
страшное
наси
##ity
поначалу
##шала
пожи
##рованный
##тную
млрд
##пила
игровой
начало
увеличи
Первый
якобы
##ционный
##ky
##ивает
голос
##люсь
кост
продви
Пользова
фору
2013
Чего
пля
Президен
ред
владель
детстве
##дравствуйте
Медведе
знакомства
Крем
##нешься
озвучи
затра
##тиру
Англи
доп
наказа
планеты
обещают
##сред
доказательства
фигу
предела
процентов
заявляет
отказ
Бар
Оно
моё
##летка
ответственность
душе
интервью
уво
фир
фай
использовании
француз
парня
##ющиеся
##qu
успеш
##лера
отношении
##пись
вну
отправ
оскорб
##рку
умира
##24
скоростью
чувства
агент
указ
инду
светодио
Был
присо
организа
##поте
##таль
##дри
поки
земле
понравились
вернуться
останется
Комп
коммер
##65
давать
Джо
Гит
Короче
блоки
##ъяс
Ад
темы
AS
##крою
кури
народу
##77
население
факту
##кри
"...
##________________
##бочки
##ченные
уника
посты
обладают
уточ
Род
настраи
##лога
##сторо
НАСА
хит
##стере
кресла
!-
Тоже
##РИ
следова
настоящий
Дей
круг
Джон
гряз
##зис
фрон
сложи
подписа
дождя
увы
языка
##телю
Ваш
##рованные
Жириновского
бел
##68
берег
небольшой
рода
считается
ракета
темноте
опубли
удар
##ДД
молод
пытаются
называют
записать
форме
##ционной
программа
заку
Вся
астро
обосно
")
международ
Япо
ru
стандарты
статья
##гайте
дерь
испыты
крова
##нтов
разумеется
рабочее
войне
вынужд
остро
высота
превы
Госу
спло
зали
проблему
обеспечение
усили
отца
##нией
выдержа
фар
цифры
бле
интереса
##мере
знания
шир
предлож
относится
жесто
##плы
##ждений
##рост
красоту
##ony
моря
принято
подобных
протя
середи
##чают
##лови
хот
вещей
Каз
ночи
##чается
##гани
такси
которыми
##истов
Кол
##io
##альную
Бри
Ана
эр
Лен
вешать
основан
##алов
смогу
игре
строитель
карты
арен
съе
муль
обща
бара
Главное
##тация
##оте
массы
##зий
дока
##лению
##зки
Петербур
регион
##зовать
простите
##рике
##лона
здорово
##вшиеся
импери
сериа
Три
поступа
##pp
дорог
##ань
##дий
##дию
суп
выпла
##пп
таре
ву
двумя
рассказ
водитель
##стый
##ейн
мужик
##тием
оружия
##мит
блю
постра
лишнего
преимуще
кухо
оставить
баз
##вос
Маль
##служ
войска
Пря
##ust
ой
##оном
фун
Расска
порядка
Поверьте
приятный
заявление
##ate
##страя
наклон
Восто
мани
Пожалуйста
мотивация
понравилось
доктор
нужного
секунд
удобный
соблаз
правосла
сохран
эксплуа
сказ
##ённых
РО
решать
клави
геймплей
новая
##рк
говорится
Ген
##нную
онлайн
##рабаты
рост
агресси
##рованы
космонав
##ходе
понимает
общество
##роятно
подели
##гка
распростра
Джем
##мену
талан
опровер
коль
Фин
ник
as
движение
сворачи
##зили
##делок
##езда
приви
ассоциации
##совать
##жены
благодар
шоу
институт
##ark
сго
сут
жил
новость
вывод
запись
##анс
забра
университ
Це
видела
##рованных
папа
Ar
##ессу
кровь
##тр
Извините
перели
фильмы
воздей
повода
книга
кресле
##жаю
дев
принимать
##чности
ребён
освободить
спать
сидит
останов
Зап
называть
##пто
##бах
##se
##пуль
фанаты
проч
##вета
квадра
лежит
##бал
Пользователь
лоша
виноват
Ах
##сите
спасает
ВО
подобное
99
делится
землю
Крыма
сломать
##рид
напо
##чений
##ляли
миров
факты
свидетель
вероятность
желания
культур
##orm
##of
приятнее
Зат
большим
бело
стаби
##ТИ
##вшийся
Одно
задней
школу
##man
Ваша
##23
PI
регистра
нега
Текст
требует
старый
Донба
##роприя
##фов
зату
тихо
##шко
покупателя
##ставкой
Государ
синдро
перспекти
перерас
Федерации
жалко
##вности
пром
встрети
##дятся
эпо
##сам
повре
чере
Поз
делаешь
полтора
хорошее
Верх
##смена
##виться
Тот
ставится
##порти
впечатление
Куда
ресто
##читайте
##бий
##пустил
Старый
расти
фотографиях
Маск
ТО
российской
##петь
подумать
держать
инициа
головы
смартфона
прокла
##ляется
##читься
##дически
лагер
##жевый
##sh
понятное
разда
День
стул
неправильно
статье
##йки
800
Фото
Благо
освещение
##пенно
описы
Кана
настроить
зага
##нила
##села
##ВД
##летки
рано
##кожи
Ой
поменя
принципи
##ело
воспита
##all
финанси
ничем
вред
##ваны
приятное
ножки
Интер
##кер
цене
долгу
полезен
надежность
опыта
немно
извините
##меров
возраста
Насколько
оценил
либ
##жала
сидите
общего
##Ре
##цеду
причин
намер
##джи
Же
##мас
третий
##вец
##отов
пластика
голова
миру
справи
##ционных
оке
##ровка
##ссий
##ire
##нению
##вига
tit
уси
31
Скорее
видит
##ане
##BU
числа
##рела
характ
односторон
КА
стреми
поступ
##дито
точнее
максимум
тес
возраст
##rey
##тья
футбол
ярких
ано
село
##никах
прино
##уре
##ёв
Стран
получать
##логии
##зил
защит
согласно
удобная
получает
Два
##хая
янва
мероприя
##гото
второго
выключить
возму
##ДИ
инт
фактически
конкуренты
неб
##ail
застави
степ
42
пенсион
узнал
##ess
зовут
теорети
дем
контр
летом
цветами
ходе
##пании
проекта
##St
занимается
##рист
лени
мастер
##пти
виновен
##ьез
собак
Обра
ввер
остались
##евра
эн
поо
эксперимента
скор
##невые
видеоза
)?
##номика
задницы
нету
144
договор
##75
кредит
):
##ock
##шусь
хри
непосред
представлен
производство
##нек
##пал
##щер
маг
##зей
фер
##хал
статью
скидка
дышит
##РУ
Game
процессе
электрон
##зме
##ейсбо
##кнов
гаджет
превращаются
##zh
остался
констру
миллиона
однозначно
аги
выходу
слегка
монитора
РА
проход
заинтересо
##ровала
подряд
##уса
прошлого
Таким
соли
владе
чувак
Здравствуйте
тарелки
##ену
каз
##стики
##ith
развали
сезон
Реак
it
Ему
рав
автома
материалами
прик
бесполез
требования
сове
##кнуть
##стные
##бери
высказыва
Петербург
бейсбо
##ox
##щими
вторая
##тало
красиво
экономики
строго
188
прикры
проходит
директор
адвока
##гнуть
Лето
видим
##ect
комплекта
дес
кара
шла
любые
газо
##ровое
чё
##бельно
кафе
произвед
отдельно
умеет
##ord
упоминать
2005
операции
Такие
that
твер
губер
##Для
симметри
резко
##ula
свинья
##EC
##тности
##гну
подходит
встрет
Многие
##mer
##lex
отправляли
головой
посмотрел
тен
##IF
сила
труд
##цент
препара
близко
открыт
##льци
пункт
заключа
неожида
прож
россиян
кабеля
схоже
заявлению
##ждая
лев
любви
##зок
снять
дополнительное
полупро
шумо
дай
решить
граф
основной
необы
##вшим
Навальный
pro
##пустили
крутым
##уэ
##ляция
квартиры
зах
независимой
##лыми
ступень
хро
##bat
##сия
задумываться
звуком
##тивности
административ
ширина
проблемам
##ьер
настоящее
##влет
Аз
акс
семье
двор
##нкт
развитие
собираюсь
повезло
причины
осуществ
очереди
трудо
алюминия
##пя
sp
состоит
2004
мощным
##менять
Цент
##шется
##rid
186
пришла
##шина
двой
подпис
выхода
##мное
##бург
рассказал
мона
статьям
##ада
глазами
##мового
сопроти
ошибки
Союз
##тех
рама
хво
сэр
Госпо
однажды
вашем
##ковь
школьных
##кадеми
инте
спустя
ушах
процеду
деревня
галакти
##хвата
##бель
целый
обеспечивают
красоте
Юра
Ск
колба
самостоятельно
идеальное
ща
льви
повод
любую
посмотрите
обзора
уйти
точку
зарядку
звучит
положение
особы
Союза
поместить
удовольствием
отказыва
строй
##джетом
Каково
труда
##ницей
почитать
найд
самона
политика
Компьютер
солдат
дорогим
вниз
неудоб
задума
правду
взаимодей
заря
##ложили
##рали
##дную
##ковать
##ченных
пробел
прой
падали
разницы
налоги
дете
##хло
##MR
##чатые
думала
смотря
пробить
120
##ссы
проез
сложнее
##uc
пульт
необходимости
wh
##сятся
бойтесь
мусором
##тонной
обраща
тяж
интеллек
rel
делу
II
спрятаться
##ченный
##казал
##утся
эп
##рес
##льному
МО
вру
бокам
быстрая
разрешением
36
обычный
##aw
американцы
##рур
Сло
земля
##хождения
##уда
##коду
успешно
сравнивать
наличие
предложение
пож
##дач
ищ
берем
##нулись
##делы
табли
роман
фло
ex
сильнее
нормальный
##отно
прай
Space
##ator
больших
врач
чле
двигатель
Отличное
игно
миллион
##рои
аксессу
готовое
##ber
заве
глоба
ступени
задачи
распоряжаться
выпуск
бог
воров
взят
##дности
восток
##изм
Глав
эрго
преми
обнов
##енную
хаб
смотрите
##надца
##тт
своём
зарплаты
##вестно
зас
ПАРНА
изда
светя
февра
детям
##ковый
##жом
говоришь
##менте
лужа
Сдела
девя
защиты
Рей
гумани
предостере
компом
##доров
адрес
звер
границы
Автор
нечто
появился
лучший
отвечать
##жих
помехи
идиот
свали
заму
доброт
дешевого
удивил
мм
появились
Второй
title
##жается
истери
##кур
боковых
едином
впереме
рук
##лат
немалова
тупы
топ
нигде
##тиков
соглас
подсве
попыта
парамет
британ
яркость
187
##щено
##KA
смогут
парков
кня
загрязнения
указыва
##жил
##ксе
университет
военных
свободы
##лял
инвали
##гнал
техническом
##роз
##грал
попал
##фига
##ure
ура
вида
##ленным
Аб
Звук
##жную
написали
##жок
посмотришь
уменьшает
неадекватно
полет
##Пи
поезд
синдрома
мониторы
пута
большинстве
частью
убирает
фильме
##яться
##унд
прось
Мор
прежним
самоу
!»
рассчитывает
думает
завод
интернета
вышло
##зами
##33
F1
оформ
опа
ведете
##щений
мс
водой
арт
##ровой
am
учитывая
##опас
##рень
Сталин
сдвинуть
русском
замах
даст
крючок
Дальше
таб
##rit
Корпус
2001
крошки
##ждении
залете
тря
Кита
Население
or
отклика
##зрачная
элемента
вперемешку
уборки
##outube
Уч
Украину
экономит
матер
подвер
##шками
##бовав
хрен
le
XI
##ade
зимой
гл
##ехала
регулярно
стенках
мнения
станции
мал
большинства
##тила
##пило
версия
подсветки
изменить
##люби
большей
резиновые
страхо
жар
понадоби
##ционного
Огромный
непонятная
девайса
Иначе
оценят
наука
пох
последова
Зо
объедин
##шими
прок
очевидного
поху
Запа
клавиши
##вающимся
громкости
##млю
ТВ
Нема
троне
спросил
местных
##дке
голу
##act
режимах
оправдывают
##жий
нажатия
девайсов
беспокойства
умо
полноценное
заметен
Далее
зри
XV
расположенные
##дник
Юж
пользуешься
концеп
##лизм
правительства
Понима
HDR
##вуха
##ерии
##кола
сор
убийства
нев
разби
поведение
цветовой
##мите
ном
Европы
свисте
менеджмента
выро
38
публика
вока
библи
недель
ню
раб
щи
палит
доверял
##спомина
дочь
привычное
Кам
сомнительная
упомянутые
##онеров
отс
##лекс
команды
еп
торгов
замечаний
##дним
##76
вставки
##Гла
представляем
содро
построить
.(
паля
хлопка
##гети
мокрой
нос
проверя
отключает
роста
системных
геймпад
Апол
конфлик
льется
горкой
Мин
нока
основании
аккура
пикабушников
##кидываться
клевые
посторонние
нашим
##шается
свечение
кухонный
пресс
##пев
проводами
##рации
пульта
плен
990
парла
Проблема
Мон
свобод
провин
удивля
останавли
отделяет
Солн
##вид
##метный
кооперации
Вз
##бир
выйдет
Поток
сексу
##ритет
фла
базируются
Некоторые
слома
слушать
зал
##никей
километров
ценится
СП
канав
сби
коробочки
##ани
##ключатели
норм
эксе
достиг
двери
выводы
Могу
Тер
##леть
##шении
грамот
##пля
англ
сбо
играет
Олимп
немаловажно
##хой
Волна
отзы
двое
довери
механическая
сводят
стримов
пригодился
катастро
прочита
пожалуй
привлекательно
##гро
книг
Аф
видеоигры
##жности
клаву
значение
страхов
корабль
соц
загляните
шумы
стильный
коричневая
души
##ленную
конструкцией
##ивал
вставая
##Сейчас
перераспределение
курс
##рична
##телось
Спира
честь
судеб
настраивается
карь
блок
половина
прокладка
продукты
ниж
34
биологи
орбиту
светодиод
сказано
огней
вспомнить
перерывы
##вляющим
виртуальном
бокала
сериаль
паспо
соль
подарок
игровом
среднем
напролет
паралле
And
убил
львиную
надежной
кликов
##РЕ
мелочами
4K
Мышь
выдви
Всегда
радугу
##рэ
официально
Дэ
заслу
исполни
нарисо
девушки
влажной
гарантируют
киберспорт
детали
картинки
55
##ровано
нере
обозна
Ед
скользить
типичную
предостеречь
лидер
массивной
левша
Бес
стари
лепили
сига
грязе
##рор
аксессуаров
конс
ФС
2002
##вли
Софт
гладкой
забыли
мра
геймпада
процент
проигрываем
олигар
выдержат
находятся
сборной
стальная
фей
команди
##стера
Mode
стример
виртуальным
путин
мышек
мяса
праздничного
цену
пожелаете
сына
##деров
Ори
ант
Никитин
ореол
Джемини
магазине
бытовуха
отрегулировать
##нём
Кому
непрерывное
##тю
Спираль
пору
нокаут
набор
знакомых
подставки
пойдет
геймера
гладкий
впишется
шесть
Алексей
оху
щелчку
стримить
##чим
говорила
скрою
едро
постепенно
лен
налого
станов
Combat
Радар
коврике
Дыхание
An
##кипе
эргономика
промышленно
выполн
пс
бессмыс
постанов
##пот
##дность
правша
озвучиваю
37
##гр
напомни
Ace
Франции
Судя
светящийся
вдо
перделок
христиан
свистелок
физ
##ary
шах
уточек
затухание
изголов
соблазнов
моск
##скос
цел
мовето
##ere
##влений
канавки
скольжение
вставка
подкасты
детьми
Отдельного
уважающая
сериальчик
переливается
start
математи
любое
##ECH
##рач
зашиты
Вен
Капли
состо
Ответ
схожего
##МА
моветоном
нажатий
Кан
##головым
##Самое
менеджментом
Немалова
Дже
определяющей
Подсвет
Никогда
рынке
арест
##долго
Пульса
##никейщик
##ass
палитры
бороться
перем
раздра
##бар
муда
жан
успокоишься
задумываемся
часы
##стных
Прошу
вариантов
бежевый
##разуме
хотке
##алы
подставкой
СанПи
гг
градусов
подсвечивать
хрипы
шумопода
ладят
результативности
Механическая
Игровая
##//
Оба
сделано
гаджетом
бейсболки
переписи
симметричная
Программное
##скорде
односторонних
щелчки
собесе
СанПиН
неп
##тана
здоровье
##ходите
##нями
##Главное
собрать
посёл
причём
тканевые
завязанный
Цикли
Механические
влияет
свичи
убивать
неприметный
Сирии
прыгайте
Ран
полгода
F12
меняется
Компьютерный
Попробовав
килограммового
презентабельно
ром
рев
корпора
боюсь
контак
Подставка
Реактивный
качания
промокоду
ночника
полулежа
##ходило
психую
медленно
##Пожалуй
грязевой
округа
неле
навалено
палящего
Крючок
Центр
Re
изуч
обузу
симметрична
задевал
подустали
##точ
программируемые
TECH
##стили
оплетка
Крыму
НИ
Навального
экокожи
Игровое
полупрозрачная
геймерская
невы
Оптическая
Циклическая
Дискорде
наверно
##нилось
Эникейщик
холоди
сетчатые
Мал
тканевая
сельского
свичей
##кипа
##ТЬ
Ох
Немаловажный
##ума
видеозахвата
валика
содрогаются
стримлю
киберспортсмена
сворачиванию
позиции
программируемая
фотошопах
хоткеев
подсвета
hz
##MRON
изголовьем
однотонной
аэ
добротными
юго
откидываться
##страивающимся
амбушюр
##чив
##стые
придётся
гаджету
Переключатели
##5Для
##ссу
##KABU
OMRON
макросах
безопас
залетевшей
PIKABU
прорезиненная
##Редко
прорезиненные
Пульсация
Пользовательский
полулежачем
решила
амбушюрами
платят
отрегулируется
вордах
Подсветкой
Осела
##мотря
замахнешься
самонастраивающимся
AS5Для
экселях
AIRСейчас
AH7Редко
Большеголовым
сос
шумоподавляющим
ED3Пожалуй
AM7Главное
AK7Самое
область
BIF
BIFMA
PIKABU20
##мули
реальность
попада
деби
Втор
воск
старо
нахуй
дог
##мети
250
##кость
стрем
депутат
поселения
десятки
любопы
##рные
глазах
##ниться
youtube
##щина
бесе
##сел
Слушай
делом
##тивы
ово
##end
ремонт
брон
from
шаг
искрен
##бина
посвя
атмосфер
НАТО
жут
недостаточно
##вольно
рассказывать
записи
##скоре
теат
##оты
##дев
индивиду
моду
боле
изобрет
Понятно
хорош
невер
мг
##жима
##вии
##шено
церков
здоровья
игрок
дав
костю
имели
натура
сидят
##теров
северо
вез
мега
##ологии
собственной
колон
##влю
трёх
пал
##зию
##48
Бор
Пав
##кты
роз
Кит
пат
динами
вашим
одоб
знала
##вяз
##мей
##!!!!
##========
ключе
конкур
сутки
назначен
возникает
телефона
Bl
Между
##ko
##фера
продавать
используют
акку
вступ
##пати
Отлично
старые
последних
##сим
##лагаю
Кру
пиво
Кали
ссылки
заго
возрасте
##стье
Неужели
##охран
питания
##рис
мес
ГО
спорить
прогу
миллионы
мили
##рота
патриоти
поу
перей
##юр
Санкт
##арда
двигателя
демократи
Дмит
оказались
##гинал
теория
разобраться
Шта
##сья
корре
твоего
путем
девочка
1990
##ge
##йка
позволить
полов
##нному
сообра
ощущения
фил
пытались
названием
возле
москов
туа
впрочем
появилась
наста
минуты
ПАРНАС
разде
приход
185
##летов
фаль
местные
пошла
лё
##мон
образован
теми
2003
чужо
##нутся
подразуме
препода
##стры
сан
Россией
российские
интересы
неодно
##........
вино
жены
режисс
руководите
политику
средне
предпочита
Помо
хе
вина
эмоциона
Запад
ссылка
самолет
варианты
##шены
##части
российского
пространства
:"
1941
Тру
референ
##фикации
рука
яйца
познакоми
##одо
##питан
##шет
##дует
Доро
причинам
твою
леген
##еба
подня
##изво
##гор
##28
писто
площадь
Mr
прио
##вера
##рпи
##всегда
##ave
.–
эффектив
сезо
прокура
##ющийся
##ковы
обрабо
##вия
68
спорти
выб
потери
##това
труб
Основ
##ствий
патрио
кван
##яет
лабора
##етов
##ran
собирается
знамени
##сии
выстре
тет
##width
блядь
шли
##тивные
СА
получают
площади
думают
(!
ничто
Ры
газа
бюджета
удовлет
применя
кусок
секс
мечта
##ждается
##льд
ход
соз
##держать
воздуха
устраивает
сбе
рем
##height
preview_height
preview_width
Яблоко
некоторое
маршру
зача
ВСЕ
##чился
##Neo
ноут
меж
эли
всякий
Вик
возбу
##ненно
определи
##стям
пытаюсь
Ше
##16
Дмитрий
##95
манипу
удовольствие
##дились
##вим
##ностей
##шир
заявления
жопу
больно
##жкой
привле
плохой
молодо
неизвест
цар
предвари
автомобиля
храм
##чится
##зан
отече
добавля
##мериз
##нешь
гиган
законода
ходят
##декс
требуется
оккупа
дизай
принят
##гистри
генерал
мужчины
пойду
Арм
стоимости
входит
необходим
шка
##щика
попытки
веща
методи
##жению
финансов
ук
##новь
1999
гр
консер
слову
привез
еврей
Буду
прове
вверх
Бан
Пит
Кур
##тли
Такое
поняла
революции
процента
церкви
Послу
##фаль
##_time
you
физики
креди
почу
поставил
start_time
##гнать
направлении
Само
мистер
продолжать
ава
продукт
журналист
прожив
Ир
семью
Обычно
постоян
плохого
##ga
материал
суток
данной
ног
знак
##евой
##ствовали
секунду
##ченко
рос
контроль
врача
##ush
формы
рукой
вернулся
потря
продать
Затем
...-
выпи
письмо
фамили
сно
университета
##денти
##мок
допустим
##nal
##леку
##теры
##ющем
ориенти
маст
потреби
запомни
импуль
родился
##кции
##ty
Киев
Вал
Ранее
##льм
##лкой
##ТА
##вность
##еро
батаре
##пами
культуры
##жена
Кал
создания
##стной
##гий
действу
подви
утро
пет
детства
срабо
##теи
записа
Гар
излу
Новости
Совета
хирур
Рез
веке
выбрать
Сем
конститу
промышлен
Рос
Пой
дипло
делается
вышла
навы
копей
допуска
половину
##нен
Лон
эфи
Знаете
СО
with
##дкой
Ива
развер
кварт
##кратно
##45
глубоко
пиро
##ron
##ph
Йор
сцен
Ельци
теп
товарищ
деятельность
Хочу
ущер
Конститу
Дер
##ear
слуша
граждане
рот
##шеб
комплекс
отвра
будущего
вновь
редак
##рхи
Голо
Продол
Ибо
духов
нормальные
малы
##хнет
понятие
состояния
арти
##рована
побы
жители
Оли
чувствую
предна
позд
Том
##полу
##дняя
появляется
##км
обор
обсуждать
реаги
Th
снимать
Зак
##ванные
генети
нефть
различных
справа
Прекра
визу
мужчин
воздух
берегу
свете
ошибка
Андрей
награ
##руя
##етом
##iy
Такой
деду
##гг
##itf
##ордина
значения
крым
рыба
авари
##чению
программу
мило
вещ
##шенко
борьбы
развед
##стил
риск
уй
состави
предложения
каждую
РИА
##****
##ссию
лока
##класс
обществе
##мене
Хи
учетом
##змы
Вселенной
реальные
говорим
1944
.....
быд
инфра
штук
Ай
аудито
сигна
наличии
объеди
лень
Москву
сумму
пусто
парни
национали
##меры
постара
##лён
##вере
напад
лома
дворе
Хоть
прика
##люб
полном
сей
имуще
Эт
ученые
клуба
##ne
обоих
кусо
армия
скажите
##защи
стоял
##некдо
кандидатов
выру
губерна
##itfrid
Иванов
##22
##тились
уходит
профес
чувству
техники
хлеб
остаться
##емым
существуют
солне
##боль
39
канал
##литься
прине
видишь
фильмов
идею
поддержку
стрел
Ditfrid
##город
помимо
##риа
наук
##рованной
военные
##oun
стиль
междунаро
##щены
##рной
санкции
забира
рынка
##тни
##ссер
##купи
стыдно
##льны
сталки
вещества
задержа
Сол
##возь
последнего
ходу
общественно
зелены
коп
сезона
подход
##товой
хватило
##лянди
своя
##сев
##зму
препод
##пин
писали
##ton
груз
##пания
последу
чемпионата
отвечает
дорога
связано
диагно
жизнью
глупы
друж
умеют
вопросу
критери
##кладывать
Эн
Роди
выбро
современных
имеем
уверены
аппарат
##ктов
сним
##чках
крат
приду
судить
акту
##мби
книге
Республики
65
##кового
подсай
Обо
тратить
метод
мужа
##рились
Всего
идей
##аньше
интересный
ваку
взрыв
##нулась
чт
зарплату
прими
##ial
##роны
даёт
млад
нарушение
ада
находя
сообщил
худо
голов
нравятся
капсу
сомнения
Побе
##yp
Афри
Народ
##вёр
Верхов
de
нал
мусуль
Весь
прошел
отдать
сало
##ug
воспомина
##ходом
Земле
убийство
##тиви
субъе
##гих
Ам
черт
##78
депутатов
##стный
ЕдР
##пии
проводить
Раньше
офис
##ковая
##uch
Мои
зажи
самим
##дая
иду
Шу
##емое
монасты
температура
##igil
сигарет
##рных
начнут
##пали
боже
атмосф
единоро
учиться
Типа
Бога
следы
подво
предпринима
360
заставить
успел
выстав
отвеча
##бан
соедин
##чиком
порно
##dd
получила
картинка
##жное
большого
##ивать
Свя
миллиардов
подрост
камеры
##брасы
##хаха
Норма
база
россии
востор
##тари
##att
Go
##igilist
прямой
восполь
180
См
опу
разоча
##пель
справ
режима
технолог
максимально
##наз
общаться
запол
##дея
##ступить
##стят
очи
дыры
поток
##планет
##ённые
происходя
лицен
##щена
##кови
каждому
##ишь
лучших
интересное
тд
дебют
бат
правил
используется
ДНК
##ённый
представляет
какими
##изма
##делать
##статочно
окна
рабочих
прочим
зерка
доказыва
ch
уголо
большеви
военно
Оте
700
минуту
допол
Маска
МКС
побольше
похож
##ue
восстанов
Касья
скром
полное
энергети
немцы
48
##день
товар
эпизо
названия
поддержки
улицы
код
отдыха
##мун
ресурсы
оппон
##тивных
посмотрим
ситу
гравита
##ними
играл
##даль
##коло
планете
объект
асфаль
баксов
##ары
##ern
молодой
экипа
кори
##На
ПРО
убили
трам
подклю
почув
убрать
всём
выбирать
прежнему
йо
##чите
выпу
шпи
##ah
дале
технологий
советских
##няюсь
набира
184
обязан
признать
заблу
##ээ
дого
точка
ват
предложил
Сли
собран
##кос
ФСБ
банк
##лёт
уско
1945
##риф
обнару
Тво
чушь
##яется
речи
тренер
весело
запас
российский
##уме
человечества
Правильно
подобного
надое
трей
сделает
Доктор
каби
погу
Эр
1943
##женных
##анской
##вери
работали
!!!!
сож
внимательно
массу
приводит
купи
мари
позволя
модера
приготов
Хочешь
спуска
##рировать
подходя
нашла
КО
##ковым
##int
спасти
##честву
крупных
Гре
Ши
лоб
пары
режиме
законов
предъя
кося
Помни
компью
##зера
##прово
продав
логика
##мали
##вому
ходил
##щал
ед
активи
##шинство
вопросом
##зал
ушел
собаки
современной
##женные
инженер
раздел
вен
ресурсов
##гнали
зарегистри
провока
принял
уны
показывают
##брали
достижения
улыб
пришло
плем
отчет
попытка
Скоро
##боры
атак
ведет
убы
05
мотоци
##eb
##берг
корпу
придумали
депутаты
сыр
лице
инструк
основа
показали
Ch
самолё
полная
##диви
втором
праймериз
падает
бух
Будет
руководство
ответственности
пошло
продолжи
зуб
##пел
##ment
##рё
Евг
Тес
##чники
появится
##ивается
въ
вселенной
процесса
?»
ть
фантасти
следствие
академи
предсе
собака
начиная
ору
чес
ТА
делаете
еды
##ляться
матче
XX
молоде
смотрит
Пут
##ражи
клиента
пенсии
депре
свадь
огра
оказалась
ит
отношений
##73
голосов
хотим
##tp
##вшую
Мат
ответы
##дли
иденти
напоминает
бага
Рес
великоле
ООН
комментариях
советской
села
имеется
впло
вернул
ПДД
##нты
рекомендую
##ениями
давление
бизнеса
en
##рье
##созна
избран
95
занимаются
ВВП
##муни
космосе
организация
получения
автомобили
картинку
окончательно
Nigilist
183
Япон
берут
##шат
чемпионате
##ДЕ
NigilistNeo
слышали
псих
общей
Pro
текста
Ее
спер
Подроб
43
приехал
тит
##рым
##язы
##стественно
сериал
Спе
анекдо
##женный
Гол
показал
закону
инвести
вось
##вян
открыть
предостав
##ама
комнате
##енции
##лло
Жаль
##che
##ГИ
##тальян
##обла
Мэ
##дала
сеть
масла
картину
приобрет
переход
углу
библиоте
##слаб
Мало
губернии
практике
Эд
##год
взор
##строи
фигня
##турой
воде
1086
этап
##лару
##гите
мгнов
##етах
красный
пишите
Какое
##ступил
прочитал
мусор
предназна
##),
должность
##uk
##щины
экст
поверить
сплош
##63
жени
ребёнка
##ходу
##гады
##вла
##нутри
фраза
отношению
Иго
##веро
двиг
планы
оставля
##шений
Партия
##AS
нарушения
короче
##Grey
едет
Среди
##чало
Михаил
превос
480
термо
сотрудников
позицию
новым
отметил
##кнул
самих
стоило
прост
насла
##вят
символ
d3
##ндрои
44
##влен
будучи
##вее
впереди
крупней
мозги
удовлетво
Время
самую
поставили
предпоч
городу
селе
интересует
##тельном
дикта
атом
мальчик
обоз
нашёл
ссылкой
городов
небольшо
##числи
несчаст
01
огонь
##фан
Питер
глава
отме
терми
Вос
##ТП
##88
##тивной
Мол
##ence
аргумент
##вывать
команда
началась
постов
позиция
тов
поколения
волшеб
безум
##дленно
американских
##стал
заби
##эта
Земля
##гин
гено
Вой
##пут
насле
эксперимент
нак
Доба
Можете
##lay
прия
периодически
Роскос
##новой
##образова
кин
террор
Ман
телек
##ходила
аккумуля
##ъем
случаи
балан
волны
дольше
Разу
##riter
ходит
##ish
тесто
пане
живот
окончил
##стров
ул
юриди
MrGrey
успех
сомневаюсь
Сталина
##тельными
участников
##ows
говна
Ист
решает
##пс
медве
Дела
способен
второе
жену
##ann
##ставлять
##бое
чиновников
старых
среднего
##вершенно
завед
##лор
##чков
термина
факульт
главной
изготов
продуктов
рестора
кора
##тном
сидел
асс
Прости
##erg
присоедин
хорошей
списка
лаборато
заметить
##куро
##цес
##ждают
##севдо
##зываться
городах
Америке
##слав
совпа
поднять
нож
SpaceX
материалы
поне
перено
читаю
##ровку
боли
середине
навсегда
##рованная
Увер
сопрово
корабля
зару
Уж
##торе
блока
ТС
повтор
иной
Гражда
##хали
началось
слабы
жду
природе
ложь
##тании
Ура
серьёзно
##ёд
##исты
##выбор
спорта
звезды
оптими
dr
Финлянди
отклю
##ича
wer
украинцев
хох
Неда
платфор
реальной
имена
подраз
la
Нельзя
Трамп
расчет
Хар
цве
Кир
осторо
##уго
der
Тор
di
que
разреш
:(
##БО
el
se
del
die
1992
und
et
na
Writer
was
##лий
паспорт
повес
##нуло
des
den
друзьями
готова
da
je
van
использование
улицу
sa
do
вари
способом
##кладывается
реакция
il
by
og
охран
думали
La
зная
##uss
##чны
er
инфраструк
Были
von
1998
du
##хождение
av
выле
med
con
определить
##цер
est
зел
per
Бал
итальян
som
банки
por
съем
задач
Посмотрите
1991
присоеди
личное
De
лжи
no
##аном
премьер
заменить
es
министр
su
##ens
D0
штраф
##чко
Роб
km
вторую
документов
комментариев
ож
om
Красно
Зе
лы
##ta
соотно
угол
##te
зале
крепо
##na
para
mit
Великой
##зина
El
сезоне
his
181
ha
##da
обезья
врачи
прочитать
Пом
прости
Den
Die
##довал
дре
##мигра
1980
Сы
das
En
телевизо
контракт
конта
орден
par
##ьев
##куп
пау
гвар
##de
приказ
Джу
наво
au
##are
обычные
насчёт
Иди
che
видят
др
##ременно
em
Речь
dem
##ционная
##ИЯ
убо
эм
контексте
политической
безусловно
Скажите
оружием
посети
##ционно
Отечественной
Le
Il
философи
зарплата
сознание
##СО
New
свободу
Бол
ein
документ
совета
um
##важно
налогов
##тека
##пси
ist
var
раство
are
##брал
op
заметно
остановить
##лян
начинать
##дём
were
оказаться
od
son
##логия
##лд
World
темп
##do
##ктором
which
##ja
веж
прогно
ve
прину
##ti
sur
гомо
Un
непосредственно
маленькая
еб
привод
вообра
последствия
отказаться
проститу
Life
war
za
##to
Уда
##ni
##no
участвовал
##руете
182
##zz
Cl
det
Очеви
буржу
##енными
трет
молодец
нюан
Родился
He
Казах
Мама
az
te
##va
##яли
зачастую
членом
mm
].
##nt
##ma
##ловать
##мно
Зан
консо
had
сб
##ng
It
уль
##вите
so
##je
отв
##ёрт
приоб
Выс
XIX
выгодно
1997
1996
##li
двум
вя
has
##шт
четырех
лопа
хороших
удивительно
ur
##льна
##ёнок
деревне
Тех
University
##тками
##нень
попала
Ваше
наступ
шел
##алом
Газ
прошли
ni
высот
номера
##кономи
обороны
##динами
Тай
John
first
Бен
##хоз
##ca
Странно
os
met
представляю
трудом
организова
##емость
координа
Дени
all
1995
рада
Мистер
##лии
##стьян
призыва
окажется
##for
1994
восприя
non
##шеств
##вами
##si
доказательств
##везда
af
мэ
воздуш
their
ar
встречи
film
устанавли
понравился
Стар
Американ
1993
one
имея
##sa
назвал
несу
San
##ака
##щением
not
but
its
прощения
##меть
Игра
ir
who
логично
днем
York
##зак
##ческому
her
("
##ссно
ang
##инга
сала
over
##вающие
ser
трево
##ёк
установи
женой
1942
органов
##mi
захват
скажи
Белорус
сочета
поведения
##ki
офиц
жидко
Знаю
Попробу
##ванных
вечно
мик
po
Стоит
History
пли
полю
справля
Марс
бактери
создан
UK
1989
членов
предположить
продолжает
автомобилей
have
##ваку
this
Гри
передач
##маты
Великобритании
American
##ba
##стки
ed
стес
##бук
лучшее
экза
шар
нагре
##67
Хм
1988
ya
##ke
two
чрез
наслед
ne
##аре
##ево
Ang
##ейся
скри
##жко
пассаж
##графии
plus
душу
деревни
наблюдать
введ
Press
примеры
кримина
under
Андре
подар
целиком
протяжении
On
десятилети
1986
уголов
Бело
1987
магни
1985
##део
XVI
передает
##пик
men
Теле
been
черной
достоин
профессор
##ида
Вместо
кит
1984
##ci
##мато
отстав
41
ограничи
дивизии
тест
энергия
многим
1970
Путину
United
Виктор
1960
##ve
##оса
учили
штат
ем
соответствии
солнце
##0000
епископ
Шат
горы
худ
фрак
##щихся
работо
##me
Дай
##пети
Los
Michael
##oy
##den
становятся
time
трой
##za
##зав
Либо
NASA
##вающий
1982
1983
перечис
Али
##няются
домов
министра
королев
ВА
##меняет
III
лёг
1981
National
болезни
No
##брь
осво
поте
создавать
after
погру
##adim
1975
Det
##писал
part
поддерживать
лозу
наступа
Das
Рим
##рих
1979
стрелков
1972
come
##ya
red
##ten
##рики
представитель
other
Na
Пара
коммунисты
France
they
##кат
компаний
кош
1978
William
способны
апп
tot
1968
##ниях
переговор
уму
Интерфакс
сми
агентство
1976
##kan
##ek
into
##ровался
осталась
выдел
государственного
Pr
грузови
количестве
##ung
року
дл
06
##дора
##ів
1977
1974
1973
May
клад
альбома
полиция
программ
меняет
порой
1971
org
Mer
August
Вчера
##ium
УК
##oh
восхи
up
крестьян
почи
отличии
руководством
сможем
This
##рыз
Ром
Ост
new
##пт
карта
русской
придет
##ny
##пуга
##ho
ука
##af
##ju
##рета
##вейца
1969
клиент
ужасно
продаж
замен
свят
##др
International
Paul
City
##lar
##ji
##ивают
проверки
данного
##дик
сообщения
##едине
яв
##29
последней
территорию
##гности
##вился
att
##вёл
супру
##ленного
Ян
##вающих
ce
sin
Im
##go
more
срочно
1967
##sp
отры
вертика
David
изна
##ts
##рай
##юк
экономика
масс
1950
##co
TV
04
##ler
##стых
man
приклю
аресто
Robert
Сме
уез
Кос
ma
плевать
##чила
##eman
1962
London
виз
единственная
хре
she
туалет
Кл
хорошим
придумать
Джа
1965
ad
when
фунда
диета
провинции
.:
церковь
артилл
##рила
американцев
работой
картинке
поправ
##ku
cu
Работа
1964
1966
Ат
States
Китае
##довой
Груз
кирпи
религии
NGC
1930
Кли
Кажется
##ристиан
##ze
##ХО
титул
##ёра
высокой
1961
Кей
##рони
07
болезнь
Кэ
##ink
As
##сульта
сентябре
влияние
имеете
прит
1940
интересные
армию
##ns
специалист
only
Извест
1939
любых
sly
##ентом
статус
James
комит
##пке
уверена
1963
##сать
прокля
03
страной
пытаться
базе
me
##шивать
загово
правилам
Er
марте
продажи
Кат
отсутствия
амери
##чна
каждым
##шок
year
пространстве
неизбе
##ban
##уя
##син
песни
pa
##фин
##2m
Спо
опублико
Наз
Естественно
##кана
обстоятельства
свед
##ЕМ
Велико
##rs
can
ман
силой
1958
Джек
существование
out
любому
дат
мит
##мора
George
бассей
him
банков
История
##44
хим
компьют
огромный
##ond
##дист
выки
##зади
ске
##ren
группе
имхо
##sta
стор
Причём
1956
##rt
принципиально
about
Peter
1959
##яла
декабре
02
ролик
##имость
хран
##рёх
##ванный
вышли
мае
##tu
most
окно
входа
Единую
Министер
протест
скре
ДО
ведут
Дра
##мс
маги
1948
Ке
перен
ВК
издели
полка
##града
советский
Earth
русским
учре
1920
оса
пев
Ира
made
занял
##ствительно
МИ
услуги
обли
украи
1957
велик
компанию
летать
доход
##дравляю
1954
##mo
миллиард
09
##екто
##wa
скло
сообщение
передать
стих
версию
##ica
##be
Se
январе
музыку
##зительно
пива
##ола
контроля
08
существования
##ённого
помог
South
ta
Почти
ОО
##ходим
USA
##дется
1946
топо
You
уте
##ina
##бовали
перегово
уве
1955
многоразо
Италии
League
видов
школь
окончания
театр
гени
##land
##блоки
1938
ЕдРо
than
nu
ПВО
1953
##помню
##кторов
читайте
РП
гипер
картина
IV
1949
программе
1918
разными
гара
1952
All
выделя
главным
State
##lan
неизвестно
смело
##ні
ваго
понят
club
СМ
1947
обс
мошен
Фу
Вами
##работа
85
June
team
Az
1936
съез
##пия
пони
отдела
##ead
##ner
Город
догада
стекло
уезда
##яр
ca
знаний
блять
ноль
акка
sly2m
карте
гон
практика
March
ap
тё
зама
нав
She
Счита
Иван
some
##ada
цивилизова
there
турни
врачей
##время
поиск
British
pe
расскажите
ke
West
ГД
здания
##ноз
поменять
Поро
co
личность
поворот
1937
наград
Помню
политике
октябре
any
миллиарда
дадут
##вшее
общий
##центра
Новый
вскоре
называем
Кара
ограничения
##que
Сама
впоследствии
place
##хан
Сим
вдох
империи
лекарства
Ак
сознания
1951
органы
pod
##ble
Немного
сообщается
услышать
cm
Позво
интересная
страх
философ
October
английский
Послед
находился
дерьмо
службу
##сист
республики
General
выса
through
мост
собирать
North
##пры
полагаю
прес
территори
комитета
##ll
края
##ea
##res
Martin
распи
Вар
);
Park
представители
понимания
словно
Рад
##vo
забыть
##son
1933
Love
Нор
разницу
Кни
объектив
##––––––––
юту
Po
собственного
показалось
читали
стру
Получается
образу
реакции
##ck
tra
привед
##тания
179
##les
##ning
диплом
1935
##ado
плате
Геор
Жирик
Or
War
отличаются
напрямую
##gen
Кие
##zi
1934
##лью
Александра
1919
буль
человечество
Em
всер
ДТП
трол
Германия
##вано
64
устройства
##nie
##ista
слева
направления
After
чудес
траекто
шести
##off
1914
Такая
команду
pp
##vi
базо
##стного
##менили
Рост
##ённой
Club
Music
плохие
Grand
августе
##горит
Fal
работала
name
евреев
красно
двадцать
видом
нагля
орг
Николай
предлагает
1932
##ero
хру
1929
will
методы
##жили
One
##скать
bi
Man
1928
them
##дие
##яг
##berg
Поскольку
як
этапе
леса
ЖЖ
##колько
##pe
world
ab
##мыми
##pa
реда
##ллер
##ственными
создание
вплоть
драм
series
##жусь
1917
забрать
жизн
отправить
##евского
аген
собор
##тером
single
Порт
Питере
расходы
четко
аналог
хар
1931
придумал
Ссы
десятков
may
##sk
коллекти
пед
копейки
##((
school
ведом
1080
Источник
Art
##енному
For
веро
##ski
потерял
звук
Свет
базы
via
nom
диамет
Подож
##шена
открыто
полков
47
жертв
Пы
1924
чемпи
##men
выя
каб
##ёж
механизм
прийти
work
Инд
people
us
предлагаю
смотрят
отор
преимуществ
gran
Жен
материала
##без
представителей
##тике
##ЕС
слышу
America
ресурс
1927
Дом
обычных
##стка
##ger
категори
##рест
нуле
скучно
выступал
реформ
Олимпийских
картины
космической
сайта
Union
стой
##зре
##du
1922
лампо
1925
театра
##ura
1921
взро
Пал
To
##рять
зубы
1926
апреле
Van
Госду
батарей
##ii
настоящему
станут
специалистов
псевдо
радиа
должности
##аса
##ваи
history
парламент
Перед
приняли
сука
отряд
ден
##ону
##сило
камеру
##nes
лест
атеи
bu
Am
РС
ноябре
такому
Код
Справедли
формули
1912
##ome
лучшие
Эк
пад
System
природы
##ньте
King
##21
Несмотря
двигателей
аварий
hi
1923
://
возьми
51
52
##вшими
##tt
46
##_p
##by
Old
вел
##благо
Московской
подраздел
##гип
рыб
река
Давно
##ien
Суд
##ai
##жными
единой
House
принцип
июле
Республи
смогла
предвыбор
бывший
июне
##ссов
Ленинград
Кре
Прият
##мпиа
нену
##вшегося
сон
симпати
учени
ждут
офице
многочис
шест
противника
1900
##ложений
band
##чев
end
Великобри
границу
##атра
ФБ
отметить
энергию
демонстра
49
феврале
демократ
Sie
city
1910
Washington
##ach
художе
Me
My
радика
еру
China
##ёта
Tour
Royal
рассказывает
составляло
достовер
##умы
сделаю
группу
некий
четырёх
##ert
1913
бумаги
##len
##Да
based
##тику
Dr
приговор
li
каждая
English
обращение
##дника
осмот
##тору
подчер
##ita
##ЭС
##ies
магаз
))))
политических
56
института
упро
##ana
нано
##равни
моменты
стер
искренне
##гнит
провёл
##хоро
неделе
Red
препят
держи
относятся
##bi
CD
острова
Виль
IC
поселение
корпус
##уу
54
колен
Лит
издания
главы
##емости
##мета
присво
game
хрень
абстра
Будь
суббо
оборудование
=)
Большинство
##so
литератур
командир
##ische
деревя
version
анализ
##ks
Цен
##енского
гражданин
победы
курить
1915
public
шлю
академии
списке
расстояние
##писи
университете
проявля
коммунистов
##ЛЕ
плот
немцев
long
They
##зиа
восем
At
эмоции
Была
оставил
лечение
Air
##au
гни
коды
карьеру
##ier
##cy
сжи
представления
што
##фак
учить
##шель
##mu
усил
Center
комментария
BBC
гордо
There
действие
репута
##ida
дю
бабушка
имму
Best
вдоль
мягко
ом
вак
твоих
импера
Джор
1911
Company
Don
Si
главе
газета
больнице
##совет
сигнал
##ls
##бам
счастье
Black
##шё
украинцы
Израиль
востоке
вечера
53
проголосо
передачи
полета
раско
84
неожиданно
Hall
Вит
доми
известный
Europe
белый
ten
занимался
##кона
сравнить
land
придумы
##сказу
##кина
?..
##ini
Март
UTC
##han
крест
go
приходят
1916
##лочки
system
отсе
wereman
знакомый
Do
нег
девочки
Зюганова
group
##pt
зим
организм
уми
##фей
сформи
двигатели
##чом
дам
##35
Jan
вран
Ниж
английском
##ульта
лицом
1905
##tor
##бек
деньгами
home
57
Da
1908
дар
##цид
голода
##бус
58
##нях
fin
##ius
маленькие
раска
East
языком
музе
выигра
русски
брата
Star
эваку
подчин
music
##ликт
post
##нится
Японии
national
молча
high
set
Island
хватало
like
След
взаим
1907
любить
##ux
mas
нефти
now
ra
концерт
целей
молеку
##lik
##жней
##idae
сервис
59
возгла
##еса
##щали
героев
выдер
##рене
##шлось
гал
преодо
##iu
ущерб
наблюдения
##ker
баталь
достав
обычной
течении
схва
##летел
нагрузки
ряда
Сте
##гляды
Japan
умный
городского
средней
kg
Сен
show
off
увидели
бить
премии
вице
##ниями
Тим
##кают
борт
СР
##ua
##chen
плав
##ico
##няк
##тилась
шум
станция
Bu
фона
##ice
Open
Лев
##kk
major
подчи
юзер
##цкий
,-
основная
Band
Journal
пт
##рился
1906
посовето
дефици
##вязыва
Od
Институт
art
1904
day
посыла
нала
попросил
1909
##ling
2019
пригото
лат
принадлежит
демонстри
we
або
брен
перешёл
чел
High
наст
иско
упал
здание
синг
Street
Пост
##con
итогам
куб
перео
инвест
утверждение
##дона
верто
##gan
спортс
Иль
истре
полицию
газеты
##енью
##емом
искусства
##тными
Per
танков
похожи
##zen
блог
Division
net
##аки
##ui
##стической
устой
Жиз
запретить
погибли
Воль
Mark
##ei
Подо
Time
Land
##рного
##фта
Nord
##лился
боло
рассказывал
способность
##чины
бомб
эле
письма
##rio
back
##era
духе
двигаться
гоме
##чере
Times
##щаю
##станции
##rd
гигант
##рени
German
##nik
советские
зда
Тол
девушку
##дена
личного
Is
ОБ
звание
##ликов
##сет
##74
нормальных
издание
Гал
##стик
##sch
нейтра
проз
опубликован
##http
##чел
ходили
черно
Сал
ов
Group
телевизор
Хва
руга
сохранить
пит
Муж
##ene
народов
Alexander
чемпионат
Live
62
термин
##ровании
##ука
отмечает
врагов
Верховного
живёт
88
сельсовета
исследований
Дем
video
лейтен
приста
Александров
mot
Radio
растет
меры
лаг
Os
##ляю
Осно
##lor
вечерин
черный
дне
##хам
##тивного
##zo
использовал
банди
##работать
Мир
Несколько
Представ
life
проби
##ley
МВД
##ставьте
остаётся
оппозиции
##ft
##вшейся
резер
ушли
короля
##евых
главного
line
Борис
квали
72
meg
грубо
опасности
дурак
##ris
main
fr
First
##вную
##kin
##евский
mi
Честно
спект
специфи
White
линей
сыграл
вытащи
Team
##жес
Ль
прошла
Петров
пропуска
##dan
Science
создал
:))
##пь
предел
позднее
left
космоса
##МС
##ори
##вайтесь
Rock
Data
Op
Буд
самолета
убит
Леон
пил
бывшего
##ці
Фили
Соответ
шер
исполня
did
беда
смотри
1903
:–
##bu
налог
##ile
82
Париж
пенсию
целе
ставят
министер
##ДО
управление
form
вовремя
Мини
заставляет
забро
экипаж
Лат
Фак
записы
англича
реп
демократии
ракету
##ходится
##тябре
щас
беспоко
половины
Лив
уступ
сфере
720
выигры
fa
##ленное
существенно
##хами
66
ушла
##ровую
##стин
News
колхо
##ином
From
##ale
86
Carl
тамо
интересо
уш
вли
инструмент
Испании
тащи
главная
участок
##ерами
посет
серий
карму
##вик
Арт
Пот
When
объяснять
поси
считал
собираются
##мир
##burg
rock
side
виноваты
экран
play
описание
1901
63
Белару
определение
##стрел
**
репре
VI
Пари
col
подой
Мил
гим
реклам
летний
науке
Su
##коль
разному
сложности
Tom
моём
if
ездил
Очевидно
Эм
##рованного
ОС
Первая
##товый
Atlas
Китая
ногами
##енский
Hill
делаем
##ique
##нении
педаго
тща
вопросе
борьбе
Действительно
Jones
кварта
поклон
##ano
сдох
1902
стратеги
##ського
##ido
Северной
96
толку
Рай
##ёс
##мером
1890
61
серебря
67
улыба
mar
турнира
выяснилось
корпуса
поступил
##нув
81
закрыт
178
98
97
охла
предложить
point
строительство
##ros
##гое
гид
##72
ребят
##риков
ценности
заключается
волосы
Jack
##up
материалов
##алу
##руем
Медведев
давали
##ino
##mann
банка
категории
Нако
##рана
##dy
пользователей
##енса
пробовал
Roman
Day
mu
уезд
оценить
top
недав
призы
автобус
Трампа
едва
клоу
платит
почита
конфи
скажешь
etc
идеа
##чников
молоко
неправ
##пая
нар
военного
серия
Real
индекс
бабло
##ms
рим
выез
##ito
##нче
##79
немедленно
футболист
Son
крово
Васи
##inen
выходные
боятся
конферен
подверг
занят
Sa
прие
простые
долг
83
##россий
разрабаты
##рович
сумас
плака
Экс
image
Internet
Достаточно
автоном
##ego
Прем
претензии
##ставляет
Име
##ревно
предусмот
третьего
Маг
76
radio
монет
##гур
император
лей
Европа
жертвы
тормоз
скла
##граф
##дото
уде
##ровались
вспомнил
##ima
состава
рецепт
##нись
стена
самолёт
##лева
героя
медаль
рациона
##сыла
простых
герцог
##енте
горе
92
##менов
центром
Ека
##рог
PDF
##рная
##тацию
кормить
##циям
##педи
кандидат
РД
сущ
расположена
##ставку
"!
благополу
##ari
пунктов
сзади
93
Big
любил
##стане
program
законодатель
старой
посёлок
основные
##уна
What
##яют
1898
78
Бур
##дники
##kt
получит
##ставил
подсайте
основания
соответствует
концу
гиб
бассейны
best
##ters
##туи
##tr
Помимо
учитель
эст
зависим
иностранных
71
решений
##хнуть
покуп
##стана
media
91
Нау
забил
частично
РОСС
недви
##шкин
лик
77
сможешь
Party
##эк
сборную
годами
international
национальной
74
сумма
незакон
##ee
разд
штата
Совсем
продают
военной
Вин
73
Vol
##zy
суме
1897
обеспечить
1896
Сибир
##rat
пище
консульта
запуск
death
старая
прибыли
собирался
действовать
прибыль
обстанов
##пром
DVD
air
защищать
истреб
боевых
##бби
1899
поре
69
поти
сильный
vers
##we
объем
выде
акции
87
гипоте
##бище
ветер
единственное
##ія
##OS
аз
##gu
десяток
испорти
Great
стоить
Under
разным
снят
члена
идее
1895
укреп
уничтожить
##ждаться
чь
##менту
явление
:-)
Мари
control
шикар
Of
пришёл
западе
With
##чились
##рала
##емаго
журнала
пласт
праздник
моги
Насчет
1077
##шению
Южной
аса
регионе
сделают
огромные
реальных
##let
Johann
Парнас
совершен
пиа
защиту
рубе
##АА
хок
Зи
неот
замечательно
89
Англии
нормальной
Nam
требуют
забу
Road
алгорит
найду
уволь
Откры
##чком
председатель
грамм
матча
мисс
помогать
##rum
красивые
МА
добиться
масштаб
##храни
##ффи
отмен
##имости
американский
проме
базу
##indows
перек
Сво
##вах
тести
школа
##ara
смотрели
Дет
содержание
попробуйте
##ys
##DA
Тре
Top
акций
душ
чит
##манов
##ПО
фронта
сд
принес
Европу
##нном
лечения
небес
свобода
Mit
немало
немножко
внес
Night
##ite
беру
##ФСР
угроз
##pen
флот
американские
экономику
местами
##utter
vol
##ez
By
различные
ter
условий
##ato
##доры
вмеша
##новения
фонд
##няю
##дре
1880
реклама
количеством
##use
прошлой
прики
танки
Гран
ВЫ
##валь
##ВИ
Version
##ele
причиной
Коре
отпуска
##арк
сок
борьба
##шут
перекре
book
94
##ьера
размера
государств
огне
##ser
счета
РСФСР
реальный
смен
подальше
засу
купили
персонажа
победу
lat
##ster
знаменит
перестал
##льте
України
напротив
инопланет
##альными
##вина
##пл
Germany
РН
свойства
##ула
степень
заметили
пофиг
ОТ
##ras
аэропорт
##ret
Super
мерз
проведения
!?
лай
79
рекоменда
##ити
ошибок
##PS
заняться
печень
##зает
1870
Вон
сою
целях
##эль
##ova
##анты
##chi
type
прокуро
гне
доверя
President
Предпо
правильный
полк
Лин
живой
магазина
##ненько
заморо
just
Бро
##ane
посу
оккупи
здраво
поход
клет
Оль
полного
траге
##тишь
##стное
##iva
110
запах
##ници
матчей
отделения
температуры
##ткой
заместитель
фотки
случится
Карл
Con
принадлежа
вете
вал
##лею
совместно
Напомним
Sir
##ook
Max
флаг
развле
##ЛЯ
металл
##бия
##ивали
пин
рабочий
Господи
рекорд
We
##сексу
господа
платформ
средний
администрации
##ye
населённых
максим
появляются
противостоя
##ain
##ивания
водителя
##ступи
экологи
персонажей
So
кожи
направление
какому
сестра
Однажды
see
леги
##ії
Михайлов
кандидата
##ць
наве
##ёром
умереть
##ogle
old
##ерия
tem
невероят
Кап
устройство
##ялся
Windows
появилось
Недавно
флота
Вспо
Донец
единорос
##sel
оценки
##лики
минусов
психотера
гомеопа
сад
##мия
##ona
испан
##mas
ошибку
использовали
картин
выбрали
штуки
слад
##ристо
##жество
имен
Антон
миром
##ський
down
Little
Arts
Блин
лесу
кладбище
##кнулся
##ковое
порти
Di
##имся
гип
##ландии
##вак
##чери
Джордж
##ВС
Power
##line
##фом
##van
теор
##ряда
баш
Research
##тье
##нета
live
Разумеется
##cha
(!)
виды
собственности
##ковского
##щению
училище
Позже
Blue
воевать
объективно
##кі
what
организма
##net
ich
Нар
коллек
тяжё
1891
Хотите
нафиг
##eur
##стар
VII
ОК
зон
поверхность
сбро
##еньше
##тивная
разработки
строительства
##aren
web
богат
car
##old
пакет
Советского
подгото
президентом
хз
##ira
угле
bet
педагог
Mar
##Это
##ree
кризи
##нать
заработать
источники
посадки
плохое
##lin
воскрес
фактов
согласны
вырос
Наши
Men
дорогие
Наш
Поп
Уви
климат
##ena
горизонта
ценно
буквы
Согласен
Global
Вскоре
курса
Ленина
##ise
##igh
грам
интересов
поколение
##кут
сэ
начнет
сквозь
духо
служил
родной
##ерий
соу
пациента
переу
отдал
XVIII
пределах
##ika
принимает
##дое
сочув
Йо
plan
Эл
тупой
Green
Lo
комиссии
##стояние
Adam
Good
Сами
автомат
Результа
сельское
##часа
семейства
коллег
снег
##eam
скан
поддерживает
ССР
make
##ану
чист
вар
важнее
##тельны
использует
росс
воро
улица
##able
резо
Co
атмосферу
##тори
конфликт
инициатив
Вполне
диви
камень
андрои
мульти
.«
##sis
##яем
попали
##ченной
месту
Ed
пуст
рассе
состоянию
ученых
контакт
отзывы
запрещено
результатов
again
вступа
обмен
краса
Луну
##vel
##een
выяснить
Шар
инв
##ali
Arthur
##ring
##ves
сюр
сотен
Кавказ
показывать
##эффе
чужой
израиль
оза
состоялся
Bay
загру
разговаривать
Ува
;-
##rover
##aba
Хот
бери
##oll
алкоголь
сахар
классе
дважды
Bill
посмотри
кис
Western
##стройки
?—
але
залож
##чайно
##тические
way
падения
##зка
бай
жрать
Чита
выно
ежедне
предс
бед
объяснение
желу
тенден
power
проекты
рис
архитектор
##ih
чёт
держит
##BC
##вати
model
волнует
ребёнок
сково
##ham
валют
##подоб
##шный
писатель
Прямо
депутата
состоялась
Над
полную
поговорим
позволи
мяч
Au
конструкции
Зав
##домо
##щенный
Two
house
Law
##чала
Её
##гри
приба
##ps
городской
##слей
сообщили
##лар
Вместе
рассчита
177
Her
Ей
установить
шансы
##ляем
Сиби
ультра
бесконе
силами
эпох
звезда
автоматически
Серге
##сками
Владимира
верят
печат
Гитлер
свободно
сиг
гугл
maj
Извини
начн
соревно
фигур
law
##ГБ
стандарт
Li
##ati
музыки
##62
диз
персонаж
Глу
Сю
Длина
рейтинг
##мысли
исходя
##нными
начальника
кризис
ГМО
изменится
применения
выбрал
##грамот
1887
фантазии
##ory
песня
услуг
##ентами
товарищи
сочин
заявля
Юго
готовить
ключ
играют
цивилизации
приток
Говорят
востоку
face
Прим
##влено
amp
##кручи
сходить
Слава
##нусь
выиграл
Ben
##тирую
помните
Long
цы
##пления
возьм
##ami
универса
пола
Кост
##ide
законопро
родственников
##тиях
верит
##зен
бюро
##ala
приехали
Пора
выполня
##ons
ногу
ван
##ae
##ждением
дабы
##рун
завода
отврати
нуля
1860
cap
забавно
Энер
потряса
Media
пошёл
обре
понедель
искусств
веса
выращи
Office
##met
обязаны
style
##чую
государственный
встречал
орбите
##нков
находились
##het
##ната
проигра
доволь
настоящие
Вид
питание
Петербурге
сторона
четвёр
фабри
##fa
оборон
##кома
##жало
Никола
воин
full
условно
швед
Президент
##yn
предлагают
Хороший
узнали
подсайт
Force
издатель
пройдет
##ford
Самый
130
каме
##ленными
звезд
Следу
полё
Ната
##cher
##ism
Филипп
метра
Куз
хлеба
Oldrover
разбер
второ
компанией
Член
Марк
##field
китайцы
багаж
Максим
##логом
##стся
правления
##оза
list
клиентов
понадобится
передо
Скажи
антиби
обед
соседей
Сав
имела
разма
участвовать
сообщалось
Пок
##живать
дж
Первой
людях
чудови
ЭТО
песен
Str
##----------------
штам
Lord
стояли
музей
Киеве
##риса
пап
следующие
Стал
right
##произво
Show
ордена
удосто
перевед
возможностей
новом
направля
стратег
гвардей
молодых
научно
жиль
аф
Russian
зелё
логике
##ису
##стная
среду
##iss
спон
отдельные
Московского
русо
штур
Чеч
увлека
прор
магазинах
##urs
нести
понимал
изли
угла
min
##шила
real
устроить
словах
Service
тянет
Are
прочего
заявили
способности
ответили
##шало
мут
столо
##ous
основы
плоско
телефону
известен
##чах
яи
Alex
турнире
счастью
ИМ
Наконец
остальным
нагрузка
призем
слава
дальнейшем
билет
рисо
##orn
##вив
##po
перекры
рок
выпа
душа
ах
топливо
местного
орденом
вый
грани
государственной
еда
Bank
жё
##евича
знакомые
##ённая
расход
собственных
комитет
счастья
живых
Люб
производи
900
экономике
##ТЕ
отдельных
одноим
пей
##плю
Украин
неоднократно
Your
отверсти
Нач
соревнования
диссерта
Тра
арестован
заплатить
Харь
##ult
полноцен
##ese
вакци
особенности
умные
pt
опи
брю
демаго
##гала
справедли
нови
мульт
##думан
западу
люд
ВВС
повторить
ноч
Bob
спрашиваю
gov
задачу
языков
желательно
Бли
являлся
неужели
резерв
привяза
сосу
let
class
##эл
муниципального
потребу
##ral
симпто
Слишком
зомби
Inc
рассматривать
секретарь
эв
Итали
реке
1861
перевоз
поделиться
участия
аппарата
Мет
фина
изде
похи
Мексику
##рада
ac
Гр
Стан
Луне
шансов
ся
преде
старт
покупки
располага
моди
расписа
##есса
##хие
председателя
войсками
упразд
##an_
герб
популярных
##yi
Empire
Грузии
##чам
##ционное
That
облег
1800
обычная
всякой
##шенные
схема
Закон
представление
##талки
Up
вошли
##дников
необходимость
привел
брал
Мад
белые
вклад
релиз
эволюции
##руб
советского
обл
##ровке
##оке
интересного
основных
контин
Подробнее
Поми
ато
Пика
Алексе
##гиба
Republic
##емую
Boston
design
перестали
##точку
поэт
Европей
доли
Special
выполнять
##ungen
##телен
попр
Дети
Док
mer
каль
корм
недвижи
закрыть
вкусу
Даль
Queen
мусульман
##ляцию
Вспомни
Уз
VIII
событие
положения
ранен
полете
застав
Program
Объяс
pop
ликви
term
входят
глю
связаны
##hu
изменилось
команде
Майк
зарубе
Участ
кавал
##тино
лиги
##чаю
выступил
Оригинал
включает
##ake
ждал
##pss
предприятия
Ha
##igen
розо
пропи
Ma
араб
настроение
##85
##ement
оставаться
##чон
внутренних
##ченным
источников
архитек
Andre
пь
пога
##лятся
собственные
мигра
штаба
##нился
##bus
объектов
##дателя
показатель
##вказ
обращения
исследователь
##bel
Красной
выклады
богу
примере
агентства
нужда
##тере
##rin
советую
##мами
.*
попадает
##идов
##ili
террорист
ft
коррек
следующей
паспорта
преследо
apos
прекрасный
Родина
БО
##деся
Je
отличная
понедельник
##ila
ckk
Book
##ьёз
ckkpss
яс
Примерно
откровенно
Эль
кула
выходить
Des
восемь
диагности
пош
растут
лист
уход
игнори
##ater
Эх
стараюсь
примени
быст
согласо
Констан
пирами
смени
##нс
Digital
спутников
домо
##ницах
ребенком
##uters
промышленности
авторитет
Рого
сумасшед
принимал
доказывать
##чилось
Новгород
Sky
прогресс
следить
##ram
##ИИ
##вие
##ider
160
сухо
кай
начальник
Тро
интереснее
распре
объявил
Ворон
футболу
варианта
##дря
перец
вкусно
##иду
каждое
##нутый
успели
полчаса
объясняет
Жу
конференции
Ray
Обе
холодиль
спортсмен
сердца
закончится
Аг
##шаю
чувствовать
пропаганды
1850
гли
Ур
Болгар
Some
проголосу
некуда
Google
##ГА
лозун
бои
XIII
online
одних
##льней
Большо
столкнов
Home
Соответственно
Азии
лек
##прф
##iti
##мии
##asy
вменя
##ковский
Reuters
велосипед
золото
статей
##тывать
позор
суммы
муници
привлек
металли
абсу
Сев
project
требовать
1500
##rus
##лков
##шешь
составил
##иваются
##менял
клетки
колхоз
размыш
App
сроки
корабли
ass
аккуратно
Nature
преступление
1072
первен
внутрь
некоторым
##пление
коллеги
SS
научных
XVII
кота
Хор
появления
медали
полезно
коммент
Йорк
Егип
vi
русско
140
проекти
актёр
free
отсутствии
Явля
разрешение
существовать
вскры
Sun
Act
среде
мил
##ding
трое
отпуск
бум
Пох
разбираться
оплачи
##За
снаружи
компон
американской
поддержка
Макси
коммуна
##ett
нейро
sub
##ГУ
сообщества
журнал
проблемой
##ъек
природ
Georg
давления
директора
статистика
исследование
Andrew
##димся
аргументы
Эли
справедливости
подписал
Часть
эксплуатации
Фил
рабочие
днях
##ness
Mario
##хуя
##ani
##спи
God
Мария
##фек
члены
##бла
остаются
##anov
Центра
красота
белых
проник
дворян
Bad
больницу
Хол
замер
##май
##поле
прошлое
##биться
»?
куби
сравнения
##уне
слаб
Гей
полос
Суще
колеса
круче
fi
##pr
международных
125
Белоруссии
хол
XIV
Увы
делала
Спи
Стали
Online
РБ
##ella
##влин
Видео
заново
понравится
берет
севере
##тре
стрель
женщину
зоне
следующем
Иванович
оси
брау
священ
пузы
физически
##ментировать
мудак
##дивительно
реф
##ньку
эксперт
настаи
##наб
широко
мощности
##дру
open
коллектив
недоволь
##стон
Hot
дед
бабки
кухне
run
Отсюда
XII
фашист
фамилия
##дцати
дорогая
советы
преимущественно
Пат
обучения
занимал
Жела
слышать
неважно
заст
EP
Дал
сило
совпад
бросить
избавиться
Наиболее
обсуждения
вв
царя
просил
##тник
101
##ступление
деревян
Шо
чей
четверг
Рич
перепи
пыталась
##way
##фикси
скачать
бензин
color
прице
вторник
##herj
западной
улиц
##пред
Point
округе
считали
пытаетесь
пойм
Жан
израи
Нат
провели
семи
пострада
секунды
##енит
пятницу
оку
цепо
железной
кабин
einherj
Хе
организаций
волн
Анг
юге
традиции
выходе
еж
##паться
провали
колони
Victor
дала
многом
личный
ошибаюсь
Евгений
human
пребы
Second
нить
##ha_
##чкам
пишете
незнако
хули
##доне
присла
Entertainment
периода
подписы
половине
Хру
##ствовала
фан
##дители
##пове
##сол
##тянуть
##ьями
##зах
земель
action
пообе
стрелять
##ЗА
учителя
факультет
##zer
Tim
##una
##iro
поворачи
переб
Особ
Коммуни
##oci
Дан
поехать
создании
выр
энерго
лук
##ватели
##ште
##НК
позволит
мете
личные
Жизнь
Свобо
Иоан
every
People
Наход
неудач
бассе
##gr
уровнем
переч
разрешения
Син
утверждать
мента
исход
Miss
вспы
anti
##illa
##новый
гражданской
представляете
копе
Ford
##рол
фено
##енье
живем
бого
Dan
распла
Иису
ввести
старший
относят
пропаганда
Sam
риско
частей
Повто
Указ
метал
размером
толком
дежу
РИ
нат
хозяйства
Игорь
либералы
заблоки
дохода
Мерку
подчеркнул
массе
Mount
отставку
лега
##дана
воздухе
##леб
примеров
вою
уху
ездят
участник
проходят
NAS
Project
Австра
сектор
слой
##ждению
случая
Юрий
##скан
судьба
операцию
мотив
RS
воздействия
тролли
установлен
##Stal
продолжение
##ues
боится
##cus
позволяют
Be
направлен
голосования
##зацией
##кот
Fort
штаб
##пресс
##ственном
##шенной
поездки
расследование
##any
вызвать
дочери
##ori
высоте
IX
полномо
##55
параш
##пари
Бай
заправ
Ван
##DI
носить
спрашивать
Индии
составила
аварии
исключа
##лочку
происхождения
бросил
Единственное
Line
##ющейся
##oen
скончался
Most
##isk
Gold
летит
острове
модер
Мур
бег
прохо
аро
Джейм
лечить
длиной
хорошую
взрыва
1090
##ностях
получше
syn
саму
боях
потеряли
##hin
##тках
переи
##Не
##рация
пова
мышления
Valley
добрый
желании
восточной
уехал
##лками
##onyx
Фер
Model
растя
открыл
абза
контролировать
##fi
импульс
вывести
результатам
тупые
Национа
сценарий
##проект
##ins
передви
заголов
теорию
##gar
экстра
враги
##гается
орбиты
##ille
пациент
##цева
##новых
news
##osha
Настоя
отделение
Golden
верите
следующее
тюрьму
Най
дискуссии
##san
##ike
##39
Carlo
пойдут
##нской
музея
##жаются
PC
Олег
.).
протекает
##ful
DC
Сист
цело
##38
внизу
небе
Sur
коме
турнир
Corporation
##нович
##ін
концер
##вела
напол
скажут
##жую
перейти
Америки
Академии
очков
Послушай
##формули
Вне
##дному
выступления
массово
фотограф
нен
Шатт
##барди
Пан
СК
оператив
вклады
обвинения
Смо
##uar
##НР
##мал
муниципа
##set
Исполь
договора
твоему
привели
##жайте
извра
Gen
##_d
##пам
стадии
put
рубля
Games
политические
виру
Out
напле
дивизия
дайте
##ринов
нера
1280
##рает
спла
нанес
инспе
##ённым
Who
известных
Патри
105
россияне
Roy
отсле
концентра
##лятор
176
супруг
разнообраз
противополо
Климат
учился
##щиеся
Поэ
аку
быдло
If
ищу
##новым
Остальные
Post
дождь
жир
##ments
врага
оф
ВИ
Чар
парк
старше
озера
зла
средство
бежать
прогресси
Завтра
получился
вступил
выпить
##торами
сест
Foundation
утверждает
Провер
Sin
корей
поехал
##евым
##вке
грузо
##ose
властей
возобнов
серти
сканда
РК
животное
произведения
дизе
построили
стере
Фрид
вере
##nar
произошел
путём
##ces
повед
сопер
Сил
Бр
##ивая
##нились
посчита
делам
Мит
##дении
усилия
Pacific
##АС
дипломат
фирмы
##fe
##тес
stand
билеты
##шные
идеально
##пустим
san
сравнение
диагноз
пешком
Master
зайти
жене
нормальная
Оказа
чиновники
Миро
уверенно
мальчи
Кеп
##гаться
подвес
упоро
подвод
каждые
оборудования
Акт
нашему
дворов
##ципли
функции
##надцать
отношениях
Впервые
Web
обго
##oi
##дило
##ante
##тизм
руба
тара
Папа
слышала
КПСС
Mutter
Kingdom
##гель
##дент
спецслуж
глядя
Австралии
венти
##нюдь
Story
Большой
Ass
запустить
теоретически
постеп
нормы
неи
Russia
запусков
хам
РПЦ
пропор
ЦК
компенса
подозри
государством
американского
Марсе
реком
мель
посме
##mar
##ТС
налево
##фик
избирателей
красивая
товарища
Заба
насту
фундамента
").
##альному
расположены
била
Бат
##ыр
переговоры
преу
Высо
##ournal
""
окружающих
пик
общее
суббот
выборами
##гай
Первое
##ленность
##право
пальцем
отпу
Порошенко
##ЕЙ
поехали
ПН
плохая
Order
eng
мам
##даю
чемпионом
##стым
армян
##чете
Va
##eta
википе
Медвед
высокий
##ifir
придержи
увле
девушек
Париже
Израиля
Port
sm
##скохозяй
град
расстрой
Прин
##иды
Sea
воли
компенси
регистрации
происходило
функциона
ТАСС
территория
именем
Лондоне
##енту
пролета
свидетельств
Список
Этого
Bo
ИИ
##гаю
##wood
защитить
прописа
потерять
элементы
Луны
новостей
##ete
##рте
Part
эпизод
твоим
!..
снаря
дистан
##лел
независимо
столицы
гражданина
##лиц
##chifir
главных
возглавил
пожар
движу
##ha_chifir
интеллекту
##hen
leha_chifir
лейтенант
насили
Воло
Британ
составляла
изменение
never
##ДП
Лос
обидно
Умер
##ська
##ерей
##ood
вызывают
командира
бил
военный
Северо
Друг
системой
влияния
Battle
маркет
Last
приступ
##нду
##линг
##таж
организо
102
жалу
Can
##рованием
просмотра
мелкие
промы
пробу
Дэвид
обос
Позднее
фальси
Family
ваще
открыв
умею
похуй
Слов
раун
невозмо
##лететь
Армии
едут
процессы
##ette
группой
##und
чуде
самоубий
критику
пан
Мах
##редото
обещал
Вашинг
апте
##fer
владелец
обычного
дос
##еси
Сэм
Douglas
старта
сух
сапо
собаку
##ivo
##вились
##дны
##держит
Добрый
##везти
Брю
уехать
помогают
Золо
Бре
map
##тимет
Уильям
административно
Fox
специалисты
зоны
##сора
##тяну
диалог
литературы
тота
радость
##эф
стихи
##жете
Флор
крестья
интелли
орбита
страха
Созда
Gordon
##тельностью
##несли
ВМ
##рованное
позвонить
##ктивный
содержи
Civil
избиратель
##get
Disney
Ex
стену
коз
##oz
Калифор
ток
художник
ant
дядя
Дев
успеха
Вес
##товые
сотрудники
Final
Du
Нео
храма
давал
посёлка
авиаком
##зиться
##иваться
Чемпионат
Америка
ускор
##АН
службе
начался
врать
Ярослав
свар
##enko
##ционную
рекон
##ora
авторы
тал
##тс
##зне
##ych
##ченного
Джен
Расскажите
##тывает
##ппара
##min
диапа
Парт
бригады
добавил
допу
How
убивает
упаков
Ом
##веден
нежели
Николая
округу
монастыря
доля
##ои
инжене
уга
организован
открытия
попут
самоо
Компания
конкретные
бок
##ционе
##erc
кали
##less
":
vs
Major
cas
##iya
третьих
350
##ссис
##еми
присутствует
##my
балли
иро
квартира
##ставили
декла
##ould
##zza
Динамо
Первые
##вайся
(«
##ans
проживало
погло
руководитель
##мата
##ВЕ
партн
электричество
растений
факта
уют
председателем
##тельна
иллюстра
Microsoft
шос
##уа
##дуют
доверять
кпрф
##vet
Tot
любов
##тятся
Тар
mil
##скоп
Киров
Пес
##ОО
Каб
заявила
утили
манев
person
Турции
крупнейших
black
бокс
мака
считаешь
пород
pot
##oft
работников
камера
Цер
Название
##дитесь
записей
испытания
##тических
спектак
##тала
Sport
средняя
##фло
пассажир
Зас
лед
гитар
недалеко
##unt
109
руль
хозяин
нормальным
компози
геноци
Николаев
Hong
##чилась
услышал
направо
Серб
бабушки
вопло
Любой
пооб
захочет
студентов
ислам
##летит
нынче
показания
торо
полным
Heart
зафикси
##дование
##раться
публику
##ваемый
полосы
гуманитар
Зам
Слы
Like
Мел
сельскохозяй
солнечно
##жье
научиться
собрались
нации
бомбарди
белорус
104
##раста
##циали
реальная
##челове
фразы
терпеть
Дуб
веры
едят
##теть
##работки
my
князя
Ltd
окре
туристов
Павел
Госдумы
Шве
покупают
расположено
##прият
process
поликли
##34
любитель
больницы
рюк
мышление
##щенные
Ап
##неф
невероятно
##ama
веществ
продолжают
##жден
Обще
##ola
Площадь
Дерев
вынужден
Wh
кля
##ведений
национального
джи
##дилась
##нину
hy
Село
создана
##интер
перевести
развлека
идиоты
Рам
кал
взгляды
##дными
религия
небольшая
##ій
охот
экспеди
##ava
pl
космических
маленьких
генерала
застре
доктора
Хорошая
али
безна
границ
##ota
сочи
назвали
безопасность
##зали
разбор
good
социальной
встречу
фотографий
парламента
накры
##лливу
Planet
##най
Пов
##штаб
обучение
построен
уе
##ДР
оставили
Ad
расстоянии
Явлин
Впоследствии
очки
студии
отступ
кораблей
Mic
ev
##женной
разделя
километрах
законом
искал
фикси
hand
персон
изменений
фразу
Хватит
подож
принципу
аспе
квадрат
еле
взрослых
печ
##кторы
построй
Russ
деталей
##начале
source
понравилась
кож
правом
##рыва
надпись
нехоро
исправить
##штей
капу
императора
окончании
французский
оппозиция
любимый
считая
Королев
шокола
Сту
гвардии
Восточной
определён
Президиума
пилотиру
марки
##ствах
##льф
осна
пистолет
##сро
Soviet
опер
свыше
Уверен
Business
третьей
##греди
##бже
взяла
возро
доброволь
##сибир
мелких
сделаем
Сви
Серьез
крупные
##уже
##етро
воспоминания
началом
##тники
##лока
Польши
жер
бабла
Михаила
:)))
##шав
фронт
##inist
##ляются
обратиться
используются
##осе
Ил
добраться
##таски
##бки
компет
выступает
Свер
покинул
##чему
##рованным
памятник
линию
рф
линия
впо
Кого
прови
get
##щите
gen
ценой
3000
Казахстана
Вра
потихо
Уни
##жья
Отно
рец
ненависть
##iga
##vy
грудь
##яна
руке
прошед
Стив
##потреб
фр
Павлов
тюрьме
Министерства
кампании
##вятся
Летом
мем
энциклопедия
##ждаю
415
компро
коне
чрезвы
двоих
вопросам
сравнении
Калин
произведений
обеспечения
персо
##жков
радости
бояться
называли
родственники
сегодняшний
отрасли
ублю
##вни
Will
Является
высказа
nev
Boy
##here
одежду
Стро
##ries
электора
Абсолют
##графия
Бл
животные
соеди
##вард
##совой
##ИК
##гана
бир
Stanley
международного
имеешь
##дово
заняла
эй
районного
замуж
техника
Тран
170
Шах
##нете
покра
посред
преле
насы
##шенный
##stand
Хан
##тников
поворо
мелочи
командованием
##aria
Другое
Human
совершил
борту
создали
вслед
аргумента
##казывается
катастроф
##ott
##дером
окра
Хотелось
мечты
директором
схо
Middle
ржа
общая
Лей
погибших
Часто
маленькой
победить
взросло
рефор
каст
Роберт
change
ставит
Элект
fix
сюрпри
##везли
FM
##зья
##бка
назван
банд
пулем
##ias
проходил
Death
лиге
тотали
Расстояние
воскресенье
ищет
?&
Численность
девят
Тебя
##ченная
##vin
отмеча
давности
визи
всплы
##бят
ребенку
удастся
неком
##imo
тяга
Боб
равен
всяком
экз
выу
властью
Василий
Коз
пересмот
ins
##тово
сняли
районов
Марса
##ёй
пытаясь
размере
несет
Бразилии
##its
Уд
ДА
участием
##26
король
кир
рубеж
снаб
Практи
Петра
игроков
##port
Bell
теннис
##ated
##сою
обманы
##ванная
##фото
Ут
местный
понимании
установлены
поезда
алкоголя
перехода
жёл
Ze
Суть
немецкий
##пец
современного
удачи
подсайта
мла
подда
##ПК
##reat
Генрих
##мину
обнаружил
Нев
Попробуйте
цит
103
Зако
хокке
сид
модерн
Ас
Нача
тонны
##dom
##house
местности
ехал
обита
sol
##стах
средневе
##ical
##пкой
Соедин
тротуа
вера
разговоры
##плом
звёзд
режиссёра
Петербурга
одинаковые
молока
##leg
весом
центральной
провел
##гот
забудь
##ios
нормального
сувер
интерп
огромная
объём
Деву
рабочего
Ab
Est
республикан
экскур
маслом
низко
##itch
##филь
личной
днев
##берут
губернатор
mid
mod
песню
доказательство
##тологи
##din
букв
Касьянов
Святого
черта
##ient
явления
спутники
##теле
mon
##ведено
Хэ
тщательно
евреи
low
съём
##bb
мальчика
строя
Ivan
вле
tri
Каким
соору
##тину
пункты
рекламу
союза
дух
##щаются
Ясно
театре
выпущен
Баг
##инка
подготовки
урав
##моса
##чан
Ог
##alo
гуг
правоохранительных
достать
##пед
##хла
годам
большому
клубе
Way
обязанности
рейтинге
##парта
располагается
Cross
изнутри
насо
скафан
бухгал
Харьков
Мас
##эд
##500
посоль
склад
бою
цензу
дно
115
технику
Light
##дилось
просит
сынов
Тя
свеже
ba
##шится
проверять
перепро
обнаружили
морской
ku
Суп
вм
изби
деревья
нагло
##зился
##рель
формально
поде
Over
детский
припа
##рг
##куль
дорогах
статистику
##red
реализации
попо
мобиль
шизо
предприятий
капитан
положено
сказки
вож
##orw
Сум
удовлетвор
комбина
Фильм
ожидания
##ваетесь
Западной
Name
д3
##нимание
лежа
соглашусь
страшного
Пап
Сор
меню
действительности
пассажиров
заце
произошед
эмоций
Газпром
ненависти
рыно
##дыха
похожа
##евые
продукции
##box
демократия
##ённое
##корд
дуб
ветера
##ваемых
заи
!".
##терн
вперёд
Благодаря
font
Яков
тексте
light
дому
субботу
премию
участке
##американ
##шников
##mit
терапев
##gh
земе
Начина
транспорта
##ork
Жа
##ллет
маме
руководства
интересных
Герой
частицы
ОАО
##бю
ужи
конвер
double
афри
сидели
предме
печально
упоминается
ожидал
подробности
##лык
__
бассейн
бежен
Жел
комнаты
коали
журнале
##альности
отсутствует
сход
##эффици
##стерои
зае
научной
мероприятия
парнас
##ивание
проси
220
Marcus
доступа
прозра
111
Граждан
атм
чувств
бр
!&
картофе
заканчивается
эффективность
прошёл
типо
ях
заболевания
Всех
великолеп
Кот
привело
содержит
test
госпита
годом
старого
##тивное
наркотики
парази
отма
##oli
входила
##деры
сперва
Шир
##жками
##моро
сформули
ЧТО
##оли
Эйн
кругу
ISO
отдох
вои
##well
##rot
Чис
##over
изучать
описать
избы
педа
##НЕ
отказались
пацаны
изоб
Раб
Коп
Даг
сантимет
англо
Ann
##ions
Пак
сборная
Stand
выт
находилась
научный
коррупции
переехал
Falcon
ожидать
##мона
финале
Первоначально
планета
культура
Гитлера
попробую
упор
Wild
уголовное
представьте
жид
пользуются
звания
собственность
художника
боеви
Пам
комплекса
закреп
соглашение
ухуд
левой
привыкли
##вале
##27
условии
ипоте
Афган
тези
Новая
поддержать
отбор
сведения
Back
приятель
##ствующих
Гали
непод
трейлер
Health
ежего
никакие
превращается
ВУ
счету
Право
##oon
атмосферы
ПРИ
Inter
##милия
сельский
##гим
##летом
More
странные
режиссёр
армя
##ственность
перенес
Яро
родилась
ур
экзем
Дор
Рэй
заки
##phin
серию
клин
мощность
Лет
Днепр
подробнее
##дай
логики
сед
матри
наряд
##uit
операция
Del
сообщество
Солнце
##yan
##гета
кругом
жилье
##ящий
конфликта
Сар
##car
Едро
Edition
общины
Баб
зависимость
иных
холод
убийца
аст
отправился
ввод
актриса
геомет
Пошли
чечен
канад
удержи
пьес
бомбардиров
Field
счётом
Down
Греции
##резать
Анато
Марии
##мпий
Fire
структура
##ades
официальный
хорошем
Нав
240
##тался
##ьян
однокласс
набро
одноразо
фрук
##ровок
график
дисципли
##гона
Сел
расследования
разговора
заводе
спутник
Сад
Образ
глупость
Верно
Генри
талантли
##gel
Not
сериала
покрыт
МИД
##arm
Studio
социальных
украинских
пиар
снял
Пров
звонок
прошлый
Октябрь
Voen
баскет
терак
DJ
вики
повлия
здании
сирий
небольшие
##шер
государственных
встречается
звёз
численность
грустно
##ones
причаст
приколы
строят
##Но
разъяс
признал
археолог
наказание
кровью
##ктору
ptuch
##hed
образе
замы
106
поддерживаю
Moon
пределами
набо
продаже
Fran
вошёл
непред
##uan
зарабатывать
небы
любителей
##тения
желаю
обсуждение
монополи
##веси
Наша
астроном
Норве
##sy
Voen47
медицина
тари
##чью
умерла
увидела
##_tosha
##61
выклю
##ule
##sky
апо
Лондон
Тан
##mal
##шник
Free
Точнее
Дар
Соф
Nick
Думе
стек
подумала
зате
##ктивное
Кер
офф
просвет
##тком
##ута
лучшим
love
медицины
##щенных
скопи
объяснения
Телефон
##АЗ
склон
ил
Jazz
##нье
поражение
Коммерсант
карьеры
губернатора
##неров
Val
нищ
an_tosha
Пого
водного
Каст
конкретный
хрена
гоп
##ванной
Сид
##енка
последняя
индей
совести
шоссе
Совершенно
графа
шля
Sc
структуры
брали
Уи
пойму
коем
##женного
газете
фили
##руйте
Ради
настоящая
социалист
ценность
общение
выши
unl
цеп
бумаг
##декса
Dark
##цвет
##ряс
128
##ертво
кости
перспектив
##ech
гарантии
используя
положить
сосредото
175
##stein
фле
институте
Конституции
физика
укро
разнообра
проектов
pol
противоречит
##bes
##низм
заказа
северной
##fall
ссыла
усы
близких
чеш
Ио
малей
опасность
восьми
##дача
Казахстан
##енция
подождать
Сергея
профессора
желающих
##ФА
Посмотри
##сали
##uz
насрать
СИ
Anton
##енький
Деньги
Med
проли
Берн
##uto
фонда
Hun
##тельнее
Президента
объекты
серьезные
##ология
##ься
отнюдь
##_m
импорт
приложения
любым
##вьте
##сад
покой
планируется
расста
епархии
Иран
cl
приём
Импери
##ches
Ток
Буш
урод
отчая
Code
ир
входил
лап
камни
возглавлял
предложи
##рете
##ализации
Оч
##дара
Rec
Бак
причину
перевер
##менный
совок
защита
царь
пизде
##ving
распредел
##ёров
представителя
тира
АН
##ложу
разор
Уль
Гон
убивают
дерево
Сара
Подума
собственный
##демон
ближайшие
законам
умол
нац
лишний
##чину
Чёр
##РК
инвесто
скон
принц
Khan
жиринов
личных
##никова
состоял
командой
воле
поспо
##стрии
тренером
канала
##голь
Come
кастрю
неудобно
##етки
##сид
потратить
всякое
артист
Клим
Оказалось
заместителем
улицах
принимают
Dead
рекламы
высокие
##шенных
птиц
выполни
##следствии
##200
лауре
расто
некое
попросить
Пир
южной
признак
135
приблизительно
ответов
Государственной
##bor
начались
лож
столице
Можешь
##дние
эксперти
##шы
##led
Смотри
майор
##ors
претензий
замед
дико
направи
экземпля
##вателей
оча
Bary
##oj
примера
Blues
эл
структур
5000
##шины
последнюю
помнить
Воронеж
впечатления
науку
Эду
связан
Землю
##таны
электрома
написала
Новой
Медведева
Оз
находиться
интенси
Ten
финала
патро
задать
фри
##кович
украинский
относиться
верху
экране
Новосибир
бары
крутой
##дство
аэрод
бесполезно
авиации
vadim
югу
Andreich
остановиться
##тябрь
##kov
драй
##бали
природа
##жах
##фикация
следствия
назначения
сценар
спиной
Baryonyx
Мог
Треть
монастырь
простым
композитор
правой
##торый
##uck
кои
##стным
Фридрих
символи
студий
ЖК
пешеход
встречаются
##ance
вылет
Бир
простая
Варшав
Тю
##няла
##васто
создав
очевид
пилот
Сент
чемо
расстояния
лидера
границе
размно
боевиков
милиции
тренера
островов
громко
хуя
ноу
восстанавли
выреза
хозяйств
бассейна
##ностями
##нга
сег
Гам
ранения
пахнет
влез
авторов
халя
##товая
пенсионеров
уха
банально
Солнца
знание
молодые
форт
сыгра
##ХЛ
отдых
решением
##энер
хай
особых
Группа
представлены
следовательно
Героя
испа
##мель
ведомства
Duke
##слуши
склады
размет
мусора
нефтя
##Sam
способы
особого
глупости
построена
##тип
коммуника
чужие
турец
ворота
конди
потихоньку
вышед
##шний
железо
определения
вирус
Тео
Финляндии
разъ
Руковод
частиц
дино
джин
##лица
Библи
отряда
применять
Джона
Вест
поисках
хм
##сный
отдельная
Дю
труп
деко
дешё
Кем
##ваешься
основана
бегать
self
срока
организовать
мозгов
хищ
##нью
##гресс
##жечь
##cho
##нций
Прохо
##жик
реконструк
устра
##вешь
завое
ПК
нажи
чужих
иные
кардина
Глава
##ized
1812
фоль
,...
Бля
##мане
##_v
объединения
закончилось
отдавать
Макс
ul
##ционер
вторым
##ЕНИ
##стический
парней
сахара
ня
дум
чрезвычай
##шиваем
Pap
##тический
школах
##кас
прида
обру
грязь
шахмат
##форд
бь
Твер
Йорке
большее
star
Саха
неспра
Брат
117
##ровые
Бере
##сомо
воспи
участники
Швеции
##нои
чистый
.),
выходят
Франция
остальном
Наг
##rov
смены
Franco
##демонстри
##летает
надежда
##var
##шаться
завис
##сот
служба
##ovi
факультета
киноте
пен
##лине
доллара
сорти
наркома
нацист
Воро
Удачи
Гирки
счетом
предот
Последний
Роз
коэффици
верующих
факторов
поедин
Университет
Уг
пизда
учитывать
оран
##32
##десят
поддержке
##йл
европейских
План
Поздравляю
скот
родителям
сведениям
##влек
жёст
спрашивал
##тинг
районах
соревнованиях
Иск
запута
вошла
##ститель
автору
мамой
одежды
##рованно
отби
облада
умы
##чине
удач
##сные
сопо
1600
позо
свободного
судов
реформы
##ппи
замени
гиг
##ложении
450
ver
Мик
Люд
вынес
##илла
##БУ
простого
своло
##ania
основным
токси
трассе
экология
##енька
Вторая
ежедневно
перепута
Br
начальником
странный
просить
##py
полот
Apple
лёт
Итого
little
##uma
Шер
наки
толпы
трубы
##товых
##служа
обжа
Работал
##ushka
Apollo
##hr
Института
стану
популя
Национальной
гидро
Эми
Tur
Петро
шлем
жертва
предложили
##elt
революция
Московский
##виз
Sl
1085
##мысл
##вена
End
лидеров
офицеров
свободное
подруга
##ющегося
ПА
заро
##ational
ознакоми
сложилось
штаны
хвост
голуб
Мен
##контро
потя
путина
##eld
##довали
кучи
опубликовал
##вшаяся
настоящего
проши
нежела
uk
##бл
обоб
Кремля
составляют
##ute
##твор
народом
террористи
рыца
неприятно
прибыл
народного
стакан
##женным
##льки
погре
художников
кладби
##ef
Швейца
Wind
всерьез
##нейших
##аги
попытаться
тём
Head
скрин
заплани
испуга
##_zh
среды
Opera
сорта
соседи
##лго
Machine
Кай
эго
будьте
космический
Всероссий
##сой
сингл
##чы
игрока
отправили
Сот
лучшего
летнего
пехо
Другой
##честь
”.
фунтов
обеих
ГУ
представляют
неис
ремонта
Большая
##ize
що
утверждения
pay
занимались
подло
министром
Яну
экипажа
port
аван
##марк
вов
Коли
##сталь
перестать
стоп
раздели
##ats
##СК
включить
Ух
планету
230
##ym
pdf
##жаем
серб
##рией
Перм
рассуждения
##ase
проходить
Главный
##шках
##жутся
яро
элементов
night
ужин
приняла
пограни
##ётр
##och
##сики
остатки
заседании
захотелось
Бру
Алматы
ряду
обес
Mac
Спас
Вене
##леров
уходить
напишу
твит
вернулись
отношусь
произойдет
Form
исключения
сделаны
миллиарды
##рёт
городских
куз
direct
заты
интересах
нереально
don
Вме
Находится
Первым
ag
поры
конечном
unlaba
приготовления
административного
изнасило
бутылки
сесть
##чусь
АК
view
##ied
гармо
##artun
смущает
яд
Отец
##дови
uzh
солдаты
отмечается
code
##рке
соп
архив
123
Анга
немецких
Турк
сдать
клини
разобла
отвлека
But
114
ежегодно
##мерть
пропустил
##ics
Краси
игроком
лагеря
занимаюсь
Hy
##доволь
##ward
бессмысленно
113
##бак
спрашивает
Церков
офицер
uzhas
почёт
сюжета
##низ
Ол
ДНР
Волог
премьера
##пат
КДП
##ходишь
открытие
Люблю
Пётр
Ниже
мот
##ничество
покупал
большом
офисе
помогло
отцом
митинг
##шне
характера
##нятся
посадить
миф
гибели
Дома
Боюсь
успехом
происшествия
секса
государству
##ленд
рассказывают
клубом
куро
##нский
договари
удив
Логи
ever
##oma
##тнее
Будем
точке
фейс
##рожд
Пят
##orld
##ssues
##wer
Вьет
лука
##_zhartun
750
кислот
vadim_zhartun
##дям
##НУ
##ento
речной
марк
удовольствия
сталин
##58
ух
Castle
согласился
тура
телевизион
ган
конкурса
##йку
##чиками
прох
##бита
диссертацию
искусство
жопа
приложение
Уважа
Анна
##порту
закончил
реку
научные
диалект
Мя
смесь
##Stalinist
амби
##Samyi
выж
заключения
##ides
штате
3D
116
Оде
py
пойдёт
происходят
объекта
Another
Хаб
TotSamyi
пиц
реестра
снизу
Черт
Лар
Лав
экспорт
фактор
тракт
##gy
Фёдоров
материи
Just
доверия
повстан
начинаю
опуска
Now
Покров
послушать
важное
родитель
TotSamyiStalinist
спрос
новыми
миссии
правя
210
##уров
запускать
торговли
Сок
астронав
##ets
уступа
рассказала
##bal
Оказывается
Обя
официальном
Let
##ід
огур
Непо
дох
министерства
##erm
испра
##ёнными
##фос
получал
Te
толщи
пальцах
возьму
торже
Today
##бирать
комменты
женился
батальона
##ялись
Revolution
инсти
человеческой
прися
разду
почитайте
%)
коробки
конкретных
##оки
##Вт
##ange
аллер
середины
##парти
##_S
мужу
Средний
ищут
##лист
Двор
Какого
литров
Studios
вегета
##ционным
сложный
##бурге
Австрии
продемонстри
##сал
поражения
Император
поздра
многочисленные
сцене
стару
Ред
Хай
признан
полковник
получаем
товаров
##манда
забывать
##ступления
западных
переговоров
освобождения
разгром
ство
КДПВ
##вшимся
магнит
экзо
Иркут
Берлин
грузов
пасси
армей
Представители
Вя
мгновенно
Пси
##фил
лезть
Фло
##усов
1200
Express
командиром
Чтоб
##гента
монта
единственным
Лес
Цель
##анали
##куру
выражение
князь
Канаде
Чуть
охраны
конкретного
стене
Daily
Хам
##СЯ
mat
автором
летних
кадров
зданий
##жан
##фим
Руб
отвечу
поце
произно
аудио
пале
Ивана
менедже
подавля
гулять
##ченное
##етт
Думаешь
##ament
##довых
российским
славян
случается
добровольно
##ряет
лежат
##кг
хор
##ities
кавалер
Вильгель
философии
практику
Mars
переза
»)
обсудить
придут
Монт
помогут
продолжил
уходят
##вшуюся
мужика
спорю
хуйня
Прок
##глить
озеро
романа
летают
##губо
##ствами
победа
известного
группировки
парка
надё
рады
Dream
отклон
пригород
сша
##полно
174
1700
состоялось
Генера
##мено
Ого
быстр
экономического
младен
преодол
опозда
тупи
гуман
чистой
##НАЯ
##НГ
жила
##сан
ob
##ппа
читает
##iser
доно
негатив
музыкан
черных
мяс
познаком
французского
Рев
Пример
знаки
историей
ключи
##кей
##вающая
сись
наряду
порядо
Николаевич
Деревня
##говой
##agon
Ря
чудовищ
##ця
Госдуму
##37
сбы
побли
проекту
агрессии
сложные
кольцо
ГИ
самолеты
адап
Чувак
##тической
конкурс
обращаться
заместителя
осенью
рыбу
Age
общественного
##измом
пациентов
подразделения
##фоб
выжить
мужики
Ближай
##aa
сыном
простое
Объедин
##днев
прекратить
спину
публикации
##душ
Русской
Шев
##ивались
политик
собрания
инициати
Одновременно
Константин
##лана
мэр
входили
Едино
зона
татар
врачу
121
##ливать
угрозы
батареи
НК
##kon
аэропорта
Нед
называет
Ям
Вашей
устрои
собрал
##стическая
Sound
убедить
Par
осты
Подожди
голланд
результата
мыслей
bl
размеров
Болгарии
THE
Около
##некси
our
##лизова
##тично
001
санкций
помнит
сервер
Министерство
жилья
встал
лок
Официальный
##ЛЬНО
преимущество
##Ph
высокая
Ряд
Александрович
##дительно
шутки
Основные
Бул
##гера
Свердлов
##kus
Карла
социализм
бюрокра
разной
Серьезно
##ряется
минуте
##бурга
играли
##mat
воспользоваться
решают
следующего
122
рисовать
Майкл
Венгрии
внутренней
ua
дё
Сын
##МУ
русская
протеста
Интернет
частной
интри
езжу
существа
эвакуа
##рр
##jar
писателя
количеству
##cer
умно
роско
лицем
холодильник
##охрани
странице
сал
тысячу
прямом
118
голод
вычис
##тью
признаки
##ction
позвонил
важный
чемпионов
объяснил
##mm
Euro
повышение
сотрудник
встрече
оправда
Лиги
Таких
Gray
здрав
лиф
##жами
feat
##ционеров
экспедиции
Get
завоевал
##зала
Лор
ступ
ОП
Краснояр
товары
##кту
актер
хозяева
лететь
активности
догады
плод
задержан
ГА
сохранения
бутылку
указано
##endo
финал
##леран
современный
##ване
Pop
гвоз
Angel
выбран
вылез
##бать
пустой
##аля
великий
хобби
планирует
Роман
военнослужащих
##ress
сборник
сово
Ag
ошибо
руководил
состоится
открыли
##ДУ
##:)
архитектур
заслуг
сложная
груди
127
соглашения
удержа
##твори
##чатся
##стность
удостоен
##тины
каран
референдум
говном
учит
сообщила
восстания
сете
маму
брак
Премьер
расч
Serg
бл
любите
##змов
подозреваю
ест
##ЕНЬ
Ум
вежливо
анализа
##ign
аэродинами
##верх
##тира
выкуп
несут
173
Мек
гарант
помнишь
гот
адвокат
##Tube
долгое
выка
битве
Белору
Бара
Отве
Kr
##новая
приносит
##ёва
математики
прибор
телесери
##ровалась
газет
тока
Колумб
Рейн
##альность
доходы
крепости
ящик
нераз
зашел
поту
Ус
Сай
либералов
плана
боевой
оптима
YouTube
нагрузку
##шн
профессии
композиции
процвета
тексту
веков
ладо
##бля
району
следующим
подним
##женная
беспоряд
международной
##бет
Вероятно
космического
bit
##вающей
предположи
черные
##49
##зости
имеются
династии
Круп
набрать
возможных
Пикабу
##ays
Хал
измерения
Канады
Ph
##нист
Water
ждали
хороша
Кири
Слушайте
кабинет
##тав
##потети
внед
##жества
Play
SM
маршрут
Нез
Collection
навига
Полит
убедиться
##руга
эпохи
##строить
целых
Остров
точек
водки
Тал
надеяться
создает
прогноз
##чак
Design
пови
определению
##лэ
белого
165
##тузиа
используем
##i_
##праши
бюллет
младший
изъ
нево
Цена
##чался
продолжал
задер
истреби
EU
нефте
##хах
участвовали
гроз
##ude
залив
Церкви
российская
атаки
вероятностью
сижу
##учу
Mix
Очере
хитро
дожд
Airlines
ряде
##ственности
Сири
##сию
пригово
Латвии
гит
##лоп
департамента
Дайте
Рича
##НЫЙ
past
местной
##яя
Ричард
167
алка
Жена
вынуждены
рулем
легенд
str
исторических
приостанов
рамки
познакомиться
неплохой
цветов
преувели
атмосфера
Крест
секретар
##ПП
пуль
колонии
вследствие
вакууме
Франк
регионов
Анджелес
##вшему
носители
детские
126
серде
##логу
РАН
сау
составлял
машиной
хожу
мотор
Кас
редактор
внешней
эмигра
Миш
экрани
слю
запросто
насеко
скажете
просят
##цова
РЕ
Швейцарии
северу
призван
##100
##...]
молодцы
##норма
идите
Спорт
Ков
устраивать
отзыв
Ислам
Советской
встать
хан
произошла
нашими
Warner
поддержа
знакомы
любим
сади
герман
280
жж
дополнительные
145
##немся
##чному
известны
##нейший
опроверг
подать
##есоюз
экономической
##аром
##лизма
бывших
призыв
##ставляют
Француз
немецкой
уку
капитализм
##бь
##терин
##вален
Справ
##онез
медиа
##AT
##штейн
клеток
городом
игрушки
опере
##ein
##нёс
##деп
неспособ
Кото
Stars
##ool
кадры
##ждал
источника
nevmer
электромоби
паре
незако
исправ
##ual
красного
Год
##бие
руководителя
висит
опол
командовал
##зион
меньшей
лаборатории
Зара
##Вы
портрет
Issues
Супер
первоначально
##мам
sport
эффекта
##чья
несом
беспокои
Бах
использованием
##рда
фантаст
##own
AG
победил
хранить
##даются
манда
юмора
золотой
информацией
банке
124
учат
Этим
грязи
260
применение
##сюду
подпись
Ву
Выбор
сцены
самолетов
холодно
Мисс
жалоб
залез
побере
злоб
архитектуры
119
собора
##суд
встретиться
известна
ненавижу
деятельностью
Wolf
посреди
альтернатив
рака
подзем
коров
Единственный
Мальцев
подсо
карман
оператор
гражданам
целая
смета
лого
Иосиф
айфон
украинские
закончить
##онах
трубку
опери
Сити
##ремон
углом
половиной
сумел
="#
схемы
##ложено
Lost
влюб
всякую
девушкой
Выгля
##ствования
фраг
##log
политиков
##СТЬ
движется
пользуюсь
Проект
немецкого
сугубо
такт
первонача
щита
##цкого
##ЗО
разного
##вающего
155
аккау
составляли
стоян
расслаб
Две
домашних
русскоязы
ел
номина
##крат
предлагаете
наступление
Богу
занятия
кафедры
последстви
черепа
##зится
офиг
военную
надолго
Служ
черте
##ath
Татья
больных
известность
Твой
##вателя
приехать
спир
Мод
независимости
интересны
вызо
фамилии
Sony
Валь
высшей
##ular
ближ
проходили
Бут
Национального
нужд
##тези
выводу
важна
сообщении
посчитать
проводит
страда
##inal
Mal
девять
единая
шам
Клин
##инт
Sen
отвле
колла
##eva
##time
столети
дья
##ema
редакции
поменьше
Военно
присмот
общественных
##тормо
##ology
ворот
ноутбу
министров
тепла
лав
пробовали
##side
##стические
##чеб
незамет
Заслуженный
Брай
достато
впа
гом
като
исправи
инструмента
##pat
Уол
Анатолий
цифра
врат
собственную
bar
участии
директоров
Станислав
фильт
##s5
Зу
ирак
беспре
Ней
таблетки
AC
##нская
блюдо
пожертво
лан
SC
языках
Васильевич
Пару
совету
##тному
Заг
Phil
Car
господ
американская
помогли
втори
переез
Click
Думу
##ктивной
заводы
##стику
элит
##ЧС
Плот
ресторан
основал
борода
мною
раке
детектив
##36
Абсолютно
оборот
##ждали
наказания
Статья
нападения
льго
##роси
##ales
единиц
Джеймс
##SE
чувствует
получив
Джер
подобной
убийстве
болгар
Бю
##рян
областного
Неп
связанные
##чева
возвращаться
сценари
кошка
Предлагаю
образованием
##ДС
фронте
репли
Разница
##71
основу
USS
классов
обнаружены
фракции
Иде
##ists
проживали
##близи
##cat
##ife
Северная
##сай
собственное
размеры
##пели
престол
Депута
политический
AF
##oda
последним
десант
Тесла
практики
анге
мудро
стади
##hail
Люби
;?
отрабо
победите
##лома
производителя
##вету
законопроект
##зают
астерои
Михайлович
engine
задол
смену
ико
вину
покинуть
Неза
поискать
пределы
Here
аут
плотно
специализи
развитию
главой
объявила
Силь
объясните
стрелкового
##дры
правоохрани
страницы
зеркало
рыбы
интересен
осуществляется
домохозяй
слив
неинтерес
##цца
##сср
просьбой
[...]
составили
Brothers
прибо
##жён
штатах
французской
##четов
иран
грана
Ирландии
попытался
Ер
подготовке
СН
##inger
##исто
обши
заказыва
огня
Лег
Севасто
объявлено
войн
продал
Цар
проведение
Труд
проспект
гет
270
Татар
владел
рассказали
поддерживают
##такте
китайцев
связана
ИТ
экстрем
Вил
церемонии
преподавал
Wood
пома
железа
Мель
сторонников
164
Аэ
выбрасы
борьбу
четыр
обычным
ездили
зрителей
известные
коротко
Ган
Вир
Википе
покров
насилия
горизонт
129
PlayStation
##els
голосование
отвали
проводится
Солов
техник
rate
##вному
телефоны
АССР
сливо
Армении
отобра
восстановить
##бокс
формирования
клей
терпи
номером
гомосексу
##ушки
плюсы
Фон
##тости
##гы
Спро
##ждено
Лук
##rich
##ures
##ador
##yle
Пек
телеканала
131
досту
Август
ездит
группи
запрос
кида
тремя
##ТУ
энерги
занять
последствий
##eed
132
вбро
##har
массой
реакцию
уметь
регионах
Великого
##зывается
переиз
предприятие
##зией
дально
OS
Metal
##ковыми
журналистов
поди
Gu
соревнований
##енави
подтверждение
юг
позволило
кризиса
наркотиков
выплат
Желез
?".
Адам
литературе
прибе
mode
##нением
правильные
падение
Зво
останутся
МЧС
Plan
##lands
голосуют
Кен
побережье
продажу
##iana
подра
дыр
завали
Цвет
##очи
карьере
кнопку
обратился
фести
запомина
британской
##чально
опе
key
определяется
святого
умирает
методами
##дями
телеканал
хреб
воспринимать
синх
Denis
правительством
категорически
тар
овощи
выли
московского
производить
Мам
изображения
доходов
Our
дыра
Мартин
углево
эксплуата
##есуэ
##гол
летает
##apus
каталог
сосла
ограничение
##вляется
Скор
английского
встретил
##89
безрабо
тезис
муже
Друзья
внутренний
##esta
писателей
получали
галактики
торрен
Русский
девчон
свод
Руси
##кки
##uda
##boy
инициативе
устойчи
Вд
ИМХО
помещения
##номор
морских
fors5
Java
ближайшее
излуч
плей
строили
##лочка
##товский
effect
Обяза
Андрея
музыкант
радует
гам
модерни
##лится
выступать
Соврем
##преки
армией
Екатерин
Сере
операций
##aka
бригад
интересна
командование
Взя
##брод
##шев
Лука
БУ
##зеро
##ённом
чеч
аноним
вдвое
ЦСКА
Архангель
##bie
134
потока
Видишь
sex
побережья
##йдёт
помер
нахер
лобо
просыпа
энтузиа
водных
##kor
fixik
препо
победитель
Ким
##СТИ
женат
##_papus
следующих
Фар
fixik_papus
отря
##ric
##крови
вреда
##mp
##_P
похоронен
фирма
Гав
РБК
ВКП
эксперименты
учесть
????
##сик
жопе
##ГИЛ
изучения
распространение
##________________________________
##жались
охват
152
третье
##uh
воль
Томас
Посмотрим
сожа
рыча
##rad
Красного
трилли
кислород
стира
миль
##глу
Мино
противополож
отчего
обман
##блу
кожу
похорон
##зие
временно
##летели
Запада
защитил
переса
Центральной
Азербайджана
##essa
##рованию
##руешь
##чивает
индустри
монарх
Чел
##ствующие
вул
левом
##жеб
расположенный
##стеров
предметы
равна
##ank
Горь
fact
приписы
кок
православной
огромной
счастлив
Баш
тюрьмы
закончилась
посёлке
гибри
летали
прене
выиграла
раскла
использую
атмосфере
##льника
171
подобный
развиваться
##yd
Бон
Pan
##ковую
диф
##точки
133
##back
коры
фильмах
провай
морали
бессмер
вины
##стого
методом
границей
Систем
представлена
получите
витами
Российская
Чув
##мечательно
вызов
монах
волна
##TV
маска
##фоны
##пустила
пищи
Польше
##DR
полёт
Дне
справиться
пользователь
добрые
СС
теряет
тв
##ёма
трю
##лично
разработке
Леонид
разное
Проф
Волго
яблоко
преступлений
милая
высоких
водителей
консерва
вернулась
унита
массив
Памят
ОН
отверг
убежд
##ПА
капсулы
Вольфо
физике
наличия
ориента
##чаться
численности
лаборатор
Верхо
немед
##бей
##Journal
##шишь
##сных
##общем
##зоб
##фора
##стен
расхо
туман
голосовал
Moscow
чемпиона
училища
бас
IT
велосипеди
Дани
умнее
гимна
креа
проблемами
упраж
Изначально
##рома
превосход
проголосовать
##шаются
нынешней
цитата
##нутых
тарел
политическая
братья
зеленый
делай
Джи
социально
Твоя
фальши
аудитории
секретаря
водохранили
занятие
застря
Луган
трибу
утверждают
череп
Вор
конкурентов
##БА
отпеча
шара
Intern
зрели
увеличить
##житесь
##дома
вагон
##тол
##вными
капитана
соч
замок
##новение
производстве
##ings
пользуется
Африке
Диа
Коб
активных
наду
##дело
разом
времён
встро
##бии
уважения
фестиваля
Елена
##мощ
##лис
Жив
##бат
создают
136
##43
шиф
##gin
##ровы
LiveJournal
музее
эс
характеристики
верхней
расчета
районы
##ged
Фред
баланс
господин
устроили
фотография
##ствию
подобным
ссср
поднимать
Урал
вуз
выключа
связанных
переключа
согласиться
##itz
cost
##кино
Афгани
Blood
##iet
живописи
Сбор
жд
Tw
Берез
использовались
Тит
Прода
футбольный
схеме
Om
баба
депутатом
патриарх
встретить
169
либер
действуют
особой
гипотети
самыми
несогла
##вани
иное
Чарль
мёрт
обстре
нормальное
национальных
стекла
дыха
засыпа
упр
завершения
жутко
больной
##етами
Deep
Ирака
хозяина
sv
##book
повторюсь
Долго
Который
##мие
Сек
скорой
ведущих
оставался
курсы
орудий
следов
##делки
температуре
откро
Ирана
егип
внешний
персонажи
пишешь
надежды
закуп
плох
попросту
##стребо
320
инструкции
cast
способов
##iko
ООО
##lic
радостью
канц
профессором
Аполлона
сайты
экрана
переклю
развивать
Comp
оригинал
Полагаю
моменту
cha
сексом
результатом
железнодорожной
одежда
народных
некогда
##дования
любишь
137
Большого
надоело
стереоти
исте
Systems
##щенко
третьем
предотвра
Древ
Плат
удивляет
человеческого
историй
Донбассе
объё
жизне
приу
греб
##ПС
##нор
ИГИЛ
потребности
закупа
Каш
казах
кака
Хотел
особи
Одним
наплевать
разработку
параллельно
переводе
терять
##жник
##родной
##довые
позабо
Междуна
девочек
##ЖЕ
комиссия
доволен
судьбы
##стет
творчество
тренд
Виктора
целую
парнем
кучей
##ER
##a_J
дерева
тыщ
четверть
книжки
##ванное
159
весной
Альф
возбуждено
Брон
столкну
##стического
найден
Уэ
##ссом
##бесто
слухи
высотой
Silver
путешествие
известным
установлена
лов
низкой
крыль
пости
здравоохран
##ney
##стети
научились
153
Фё
служить
Прям
оценка
раствор
летней
ара
Пришлось
авиакомпании
аннекси
колё
забер
Аш
социальные
найдут
публично
Бей
смотрим
увидите
Вселенная
распозна
##тирует
властями
похоро
технических
Нового
заса
166
старшего
Попы
Бек
троллей
третья
допустить
Christ
##лябин
остановки
задержи
Жирика
##oss
168
##генера
релизе
ЦРУ
##куля
##вилась
подго
##торам
летал
рассказывали
преем
Национальный
хоккей
литра
влиянием
##IS
вблизи
##ваемые
просле
грав
##ür
элемент
##фотографи
целые
теста
пояснил
мемори
##аааа
Церковь
Орлов
##лировать
определенных
задницу
Хью
обыкнов
рожда
##oo
привлечь
bas
##диа
жертву
иммунит
восьм
засо
финиш
hard
##яне
попало
туристи
подза
##лланд
акцен
процессов
согласна
Общая
перевода
неделя
смотришь
самолётов
открыта
бам
##зона
вооружение
готово
шедев
начнется
##olo
изы
##моз
Опера
Фрэн
доклад
дядь
возвращения
затраты
кровати
Гроз
##джер
Рели
дря
болит
Западе
изображение
Призна
логику
развивается
верхов
мужем
долги
цветы
##стических
Саб
созыва
вычисли
перспективе
163
СПб
твоё
многочисленных
##ega
##стать
уважение
загадо
первыми
руководителем
Wars
муниципальных
Партии
##рении
##ames
черная
Никакой
Tel
рент
Добро
награды
Безо
полосе
приспособ
Tr
Sy
политикс
моста
Исла
гита
специальности
ани
пренебре
##dit
собирались
узнает
##Что
мирового
псевдоним
##тиками
лобби
##зеров
плотность
value
предоставить
танк
выдели
началу
шай
носит
ветра
покажет
Class
мят
DDR
Представьте
дистанции
загра
##слова
##ёнов
##проду
##сено
Nintendo
Сти
##емыми
государстве
соседа
##oto
##шлись
инфек
##фами
хорошему
Учи
Front
этаже
соблюдать
пожаловать
выразил
Государственного
Iron
Международной
##зам
аппети
коллега
##ТВ
##берга
участь
##================
намерен
джен
Plus
Лан
командования
Путиным
Джим
Дел
ff
составит
##евна
зала
##42
цифр
наблюдал
берега
батальон
эфире
size
очередного
лекарство
строительстве
упала
пересел
ведёт
возникают
усилий
творится
критиков
масштабах
студенты
##рением
отмечают
снижение
магазинов
Linux
##aster
1089
возвращается
##хай
кинематограф
Эстонии
##тягивает
Африки
##шкина
аук
sound
нахожу
Португалии
пью
вспоминать
мэра
тени
голосом
Sk
попол
Украиной
служеб
##ровкой
допуск
отправлен
замена
Допустим
бумаге
##дений
наря
##ува
хороши
психотерапев
##zin
запя
подтвердил
Спустя
##yst
пожара
британского
сры
##москов
равных
##гнул
антибиоти
предположительно
##сова
Turbo
самолёта
##щиком
собираешься
сменить
магазины
юно
##рованную
##лём
МГУ
долбо
юмор
учебных
сопротивление
here
единицы
Ken
телеком
##aga
фейк
##_B
##vor
расстро
##rel
завести
распа
Ari
ФБР
Ау
##чут
##ртом
Другие
показала
##бись
Зар
отъ
Дмитрия
BC
##теро
мировоз
кармане
конкурсе
##РЫ
смертью
предстоит
устал
телефоне
##чаются
Yu
лив
##вшееся
##mel
одет
упорно
Ins
разоб
##чивость
десятка
##тыка
осуществля
дель
олимпиа
родителями
узнала
обычное
предварительно
Алексея
мелко
важен
154
минусу
музыкальных
дивизион
обзор
оты
##дром
Куд
Ne
сена
##ES
растения
лишения
дурац
торг
Дево
риски
странное
благ
Северного
##iel
выпустила
##рона
##вость
анекдот
технически
Яр
##вица
сдержи
буха
149
##гипет
Motor
Som
богослов
реального
вначале
пуск
местом
тяжести
диска
##ound
палец
препарат
##щенной
созданию
Одес
сэкономи
принимали
челю
Начиная
Смотреть
хода
##юще
138
розыгры
Международного
Square
##ration
блоге
Виз
ошибся
орудия
траектории
Mont
ec
свы
Святой
независимость
военным
##cle
килограмм
разворачи
скульп
выпустил
.»
пострадавших
проехать
страниц
туал
Зим
id1
сержант
сажать
норвеж
погода
цикл
повторять
##венно
Secret
Facebook
конкуренции
##пала
Павла
Вячеслав
нерв
курт
##lad
148
дата
контролем
долбое
143
носом
Малень
Тара
сознательно
глубже
лидером
##ото
Берлине
колесо
Коло
##etta
сильные
Wall
Существует
террористов
Парижа
##irty
##bs
братьев
кристалл
##технологи
воспри
памятника
##sm
международный
Вряд
Dragon
трудя
отстран
наглядно
снаряд
нужные
онко
общественной
Доброго
большего
##штейна
##ЧА
основного
Пя
157
Хочется
библиотека
пальцы
Константино
got
полуостров
субъек
Сэр
следовало
увидим
оставлять
частных
##ренных
потребления
##зирует
##емато
TDA
##ною
пещ
снимают
британский
боком
разведки
Ираке
лим
##зиат
141
парковки
##зоне
:—
держится
Бой
патру
решению
придёт
попадают
Никакого
Рак
торгу
подразумевает
пропустить
Discovery
днём
судна
##пак
номинации
действиях
читала
куски
заняли
##QQ
Франци
сыновей
фас
##зды
Ссылка
такова
московскому
управлением
##лега
тюрем
объявили
боевые
139
##ition
иу
нижней
этапа
161
поды
Голосу
некор
историк
Республике
чувстви
травмы
оставалось
высоту
##роки
ежеднев
внутреннего
проры
Ельцин
Справедливая
рель
девяно
##ждён
захотел
благотвори
Петр
членами
##кера
дуэ
уголовного
Расс
ak
крупный
матчи
иску
нелег
исхо
мотиви
ЕДИ
Sol
видать
##вкой
##ленности
##une
расскажи
почту
Ind
март
Америку
Бывает
растер
##грузки
писала
##чатки
коре
июль
зеле
Поя
словарь
приведет
##мак
стараются
открытый
Горба
146
Башкорто
пользы
##дира
партией
набе
наружу
сепара
способна
удачно
##сматри
пожал
импер
твоем
находилось
Гур
профиль
##рено
крае
##белев
криво
ткани
##ката
##МВ
языки
Орен
”,
канале
генерального
выслу
##вис
слышно
движок
детской
собрание
Храм
Кок
высокого
отход
##_s
принести
Песня
Сибири
Soul
потерь
отрас
##дков
Steam
Met
оценку
костюм
вкуса
Макк
##inov
счё
русскими
##кою
Кут
внутренние
##бые
наса
повышения
##ines
Парень
fromQQ
шизоф
соро
##шной
Рожде
##ЦИ
клубов
Валерий
мешать
##ждены
##онер
##oom
Бран
##form
Бит
GT
смена
Box
Original
##ff00
представителями
##унт
Magic
tv
хуйню
национальный
кусочек
Гай
красной
разработчики
наби
ВМС
вернее
##ally
Сель
##хозя
Част
уйдет
бала
потребуется
содержат
отво
##rem
ФЗ
Мех
академию
Бух
бывало
Вашингтон
Анти
потребовал
##тизма
древних
вно
Bird
участка
поверьте
Дэн
##59
Mi
инспектор
##ball
горит
человеке
пальца
инци
##нилась
147
предсказу
бригада
вызвал
учёный
указывает
увеличение
оперы
IN
##кисло
##тивным
##евской
Ser
цир
задуматься
отменить
Золотой
функциони
детских
яго
опаса
##ционном
act
Cor
Як
вай
вым
переходить
##деб
СУ
защитник
бывшей
созданы
Kal
вернусь
доверие
преподаватель
Knight
племян
Оу
передер
##изо
Беларусь
##шиеся
герцога
гравитации
##цина
"),
стадионе
указал
трудоспособ
устран
##лени
выби
взрослые
вручную
проводят
##тури
Зал
консуль
приемлем
пыли
частные
рту
территорий
##убий
потеряла
##энд
##84
принятия
передал
##чанию
Ukraine
превышает
выходных
заслуги
Анны
Рекомен
организацию
официальным
##вленной
wil
142
РККА
январь
##ённую
молит
сказо
КГБ
rat
риску
##дпр
дочер
возме
##рующих
средствами
забор
совокуп
украинского
либерал
скай
##ведом
запретили
палаты
развитии
достигает
корреспондент
поймать
Unit
получилась
определяет
орденами
лазер
женщиной
##енцию
заведомо
непременно
защите
убеждения
проводились
Всю
выдержи
##cience
полицейский
обстоятельств
коля
Департамент
Скажем
кише
Помните
лову
##полит
окрестностях
Баку
поверхно
##Ко
##ТР
Норвегии
друже
Представля
совето
умирать
Петрович
банкро
напомнить
Энд
поэта
Яндекс
##ШИ
федерального
рассуждать
##gn
##летряс
крышу
Забавно
чрезвычайно
##див
постройки
Нак
##Ну
отметили
материн
дон
друзьям
##женное
##аппара
КАК
ФР
быв
##ization
завы
Мое
Стол
##гредиенты
восточнее
Италия
Чай
толпа
органах
Война
##oot
политического
##эконом
##тельством
Сочи
Эдуард
ffff00
?...
хирург
##жище
домом
бут
штуку
недово
братом
площадки
кошмар
температуру
начинаешь
кушать
устав
схему
##тового
мафи
##ім
золота
Флаг
##жался
изменя
понимаем
Kaiser
способами
подъез
говя
индий
вещество
ствол
Ленты
использоваться
:«
шло
Рон
подал
определенные
Gr
Васили
бензи
женщине
##air
158
##сна
##панию
научного
брака
задержаны
Товари
##логами
##клина
ферм
Ka
##ляя
Мюнх
Осо
Кузнец
броси
Вел
##жё
Основной
затя
Марш
забрали
идеологии
Думы
уверенность
Hi
лагерь
участвовала
волно
услож
лицу
красные
пулемёт
fl
асфальт
Представитель
королём
разба
##тивную
украинской
звонить
сомнений
медалью
Control
юни
##oe
подключа
640
пари
вампи
мораль
появятся
сотрудничества
Демо
поиско
возможные
Количество
слия
штурм
отвечал
крепость
Должно
общие
Спу
журналистам
аэропорту
новому
учреждения
Tu
мятеж
доходит
уволен
добавляем
праве
пада
творчества
сделки
обозначения
одержал
156
площадью
динозав
куст
обуслов
Господа
кричать
##вода
Шам
проиграл
##рное
Бельгии
толеран
Уил
больни
##aily
##********
высказывания
установлено
важные
Науч
правильное
##ьях
спуск
##фра
##lef
хранения
доллар
##лесо
реальном
стабили
##_St
...)
марок
##TA
зоопа
КНР
отбро
pr
Сино
расходов
Эту
печати
##als
Органи
присоединился
херня
оплаты
stat
артиллерии
предпри
внешне
##провод
Boeing
судья
##шлы
несколькими
шотланд
общих
Подоб
##пру
##етку
Беларуси
покупает
##ores
скрип
##родный
Наи
Fe
энд
Санта
Риме
##правления
националист
Впер
pat
дышать
осло
частный
продоволь
распада
проспе
образцов
##ВЫ
##ступили
паст
небольшое
Guardian
анима
полномочий
Гуд
пропаганди
##ктивные
проживает
##oso
грун
аренду
баскетбол
Георгий
судно
полуо
коммунизм
парню
владельца
Ленинградской
БА
Законом
роб
##оле
Services
##шихся
Сатур
Note
учеников
##нского
Великобритания
203
талант
##нимать
музыкальной
Состав
Выборы
высшего
##шаем
закрыли
##eda
Абу
##yt
обратить
выставки
Лом
пруфы
решено
ссылок
##ТЫ
режиссер
взаимодействия
нечем
##частли
надел
первому
Международный
гражданство
западнее
назем
народной
стороной
выступили
автономного
замкну
плит
##йпер
тридцать
путешествия
живопис
##взо
точности
рва
расчё
мамо
Михай
Чечни
прокуратуры
болель
##шени
Куп
##роду
Пор
держат
##тического
##ставь
граница
киев
нареза
Мило
имущество
##краси
сарка
задавать
интеллект
нарушает
содержания
герба
видны
единица
провинцию
молчу
устройств
##дд
Чет
единого
##кте
##зила
договориться
перви
подполков
Звез
Возьми
популярность
##хова
пехоты
##Ты
сериале
##писали
комментах
Ситуа
##ole
Центрального
##Ка
советское
Справке
151
полковника
болот
##anger
##gl
турист
заняты
##даем
перспективы
находит
невро
накопи
ликвидации
Фри
краю
соси
подле
##веров
последнем
дик
звука
экономических
ось
тираж
настоящих
китайский
##тони
##unda
теракт
прочими
Вдруг
помидоры
##физи
Следова
##мешь
генеральный
гимназии
Югославии
##мова
спирт
##арка
вызвало
попросили
отдали
интуи
Пеле
br
Кё
Ов
##гивать
образец
подбор
старшим
этаж
Af
##летать
Rob
Конт
отменяет
африкан
оско
##head
##лером
Наполе
##летней
##wn
топи
накоп
][
милый
##gie
родину
узнаем
##юри
Против
##топ
маски
упира
##ternal
##руй
##дофи
Сур
##96
победит
неизбежно
Ge
японской
##ренные
Постоя
вещах
наследия
##ченными
отстре
##нора
ухо
1400
##органи
лошади
захорон
##olphin
здравоохранения
##веду
семьей
олигархи
Сербии
жесток
Коми
владения
##ьё
##ір
изго
##головок
your
##каи
Заранее
единую
правах
Офици
дивер
Полтав
внедр
перенос
Never
накануне
даче
дельта
приходить
Роскосмос
подтвердить
пира
Покупа
остановился
##нуне
##тость
IMDb
фит
партнер
##ume
##центри
ассоции
подготовку
lt
продолжить
Угу
##сий
Вет
##87
вписы
##дено
Плотность
цини
побу
##нишь
Вып
розы
клоун
вегетариан
специальных
ушёл
певица
##onn
фоку
использовался
##еву
доказывает
##милли
битвы
сообщить
Вален
понимали
Bart
##86
МВ
D1
##тиво
КН
bo
Труда
##риста
?),
принципы
попи
химии
победителем
безраз
государственном
экземпляров
##шня
Правительство
Учился
##клей
##lob
бомбы
телевидения
##ставке
Топ
финансирование
коридо
Осенью
cont
деревню
Верхняя
параметры
Рок
компьютера
румын
Mercedes
двора
##евка
##жига
Славы
редактором
Classic
ГИБ
##atl
дефе
набра
имущества
Григорий
назначил
##Mat
##сная
##сеть
призвал
скле
любопытно
Внут
Orange
Румынии
силови
уса
сделаешь
##фицировать
Донбасс
330
Нижегород
кошки
##ряться
Хер
EM
забрал
Министр
сделана
##СТО
сотню
call
официальных
##нодоро
полезной
Иоанна
ирланд
##рятся
##поло
посадили
полоса
fem
Ferrari
Ква
плачу
заморачи
##рующие
пересека
множества
хомя
укр
##вязать
Гага
##ely
континент
comp
престо
вежли
любимых
##элект
пету
накло
ребя
пацан
неба
подсказывает
сак
награду
Вячес
##лливуд
Сул
Six
##ессиона
латы
разработан
##игра
судьбу
снимает
##лите
Кня
Шот
проводятся
##шков
Бос
различными
Казалось
местным
учителей
истины
сигареты
##нувшись
фига
выдать
забыла
типов
исполнитель
Metro
Грин
несомненно
Януко
Написал
##бон
выстрел
pyq
метр
Пон
итальянский
конкретной
снега
Калинин
Акс
Пей
исполнения
провела
сражении
убийцы
##рести
##летела
совка
Кош
Мать
вариа
##ised
грибы
##следу
футбола
Кино
ушло
своеобраз
##board
альбомов
форуме
550
мара
старей
Понимаю
Государственный
опыту
Genrich
##возмо
##лиять
запе
старости
победили
##коне
переданы
произведение
Нидерландов
##ove
сферы
sat
Col
названа
комплект
Bar
Довольно
распространения
Специ
обещания
мариху
DV
подтверждает
настоящей
обещали
Литов
##ved
реже
##чук
.?
вёл
настав
организовал
Илья
метрополит
##ющаяся
тыр
лейтенанта
выполнить
mag
дык
ball
Северный
спросили
допрос
##yr
критики
известной
ели
переехала
копа
набер
Главного
##TR
натур
1088
Германию
морского
идиотов
критик
рабов
оппонента
##НОЙ
##хин
открытым
нужным
Hand
##чикам
спросите
кровать
получим
обсуждали
терапии
Киева
сдавать
абстракт
Хим
признание
важных
осили
транзи
##rian
концерта
вах
Прошло
##bit
дошло
##рочно
правительстве
попробуй
видя
составить
Пик
рубль
выпущена
тп
правды
fight
Послушайте
Спартак
цирк
дюй
Звезда
повлиять
связыва
хозяйство
руководителей
Бывший
##band
пребывания
выполнение
FA
флан
поинтересо
Кады
нередко
##ворот
являлась
бетон
Собра
областей
меняются
набрал
гуля
чая
взглянуть
выставке
##воды
Благодар
библиотеки
кислорода
##нялись
бабуш
медлен
##iger
всячески
происше
деления
ужаса
выросли
Девушка
Реально
##mir
войти
полуострова
соединения
роты
##етра
звали
крыше
gre
умолчанию
Юрия
случиться
Оскар
##ванного
погреб
Смысл
обрабаты
выдавать
225
передан
искри
вероятности
##инге
Власти
космические
велосипеде
кано
отрав
##шенная
выполнения
воп
воровать
##телях
муд
скриншо
осе
запове
205
мастера
сильная
пострадали
Одни
сани
ben
конья
галере
Председатель
app
bal
корпорации
уважать
Музей
стадион
зол
Парк
фокус
Алтай
Эп
землетряс
гонке
украл
любимая
распрода
##СТА
##уму
##манской
робот
##нат
терп
опухо
##хина
##ever
##iki
##нялся
##нару
мешают
вывода
##ict
Ход
выступала
нужды
поймут
Гугл
GenrichMat
полицейских
предприниматель
##OR
##усом
нетер
Смит
лиши
произойти
сильное
завиду
ножом
:–)
разрыв
дивизиона
определенно
Security
##был
рен
странная
образует
захваты
себесто
цилинд
попыток
памятников
##imi
##yk
Прибал
платье
мексикан
заблуждение
Ольга
...?
выступлений
калиб
Известно
опор
»:
породы
Рах
пафос
##ложением
скорей
##рался
##ФС
##oko
кипя
Круто
##хол
ослаб
отчасти
домини
пособ
общим
Востока
##кнули
лекции
разры
построены
1300
дворец
Ниг
обер
стациона
лоя
открывать
начинал
Ельцина
Jo
построено
Cyp
патриоты
адресу
зенит
##люс
кафедрой
моими
##ковской
раунд
охва
соединение
спит
Встре
ора
Dam
колеба
GenrichMatushka
Результат
Шотландии
Чехии
сельских
жителя
сосуд
##чён
шоке
##onia
притя
договорились
винтов
треуго
получило
притво
странами
главную
питер
включать
зону
напеча
платформы
MS
дз
ср
инфа
Вася
##женность
небольших
##женно
начнем
##ьёв
##дней
областной
ухода
##ЖД
крестьянской
читай
аналогии
ютубе
ментов
##ther
кало
вест
press
Скри
отпи
получение
навод
##питься
##ьтесь
радостно
IM
##................
астрономи
бизнесмен
майора
##GB
,,
посмотрю
##ренный
служа
общую
ГИБДД
активность
центров
Кинг
необходимые
экспериментов
Готов
промежу
Усть
вооружения
Ват
Чернигов
включены
столкновения
##уи
танцев
СНГ
Федеральным
природу
фотка
Матери
приготовить
любопыт
Шан
волос
экономически
затруд
церк
##ars
Любо
коллекции
мнением
официального
отдохнуть
путей
покон
настоящим
неуме
Норм
##яса
##мерами
житель
защища
##лялись
окружающей
дату
прису
государственные
инер
джа
Важно
Красный
пристав
##рело
##uro
океан
стекля
укры
НХЛ
##фейс
профессиональный
диско
доброго
Георгия
коррупцией
предварительным
восстанови
фестивале
##gg
федерации
проекте
сев
##чивают
650
математика
повреждения
Ведомости
звон
Отличная
290
контракта
ярлы
##ционеры
нагру
туре
художественный
мировозз
##vil
Клю
поступать
технического
Литвы
##стке
гадо
Прежде
адреса
Вай
Che
Калифорния
восстание
Клуб
начинаются
цитаты
рассказы
Отличный
реалисти
думе
слове
желанию
музыкальный
##lib
оценкам
##aj
студентами
представлять
атаку
щит
Software
?).
Тиб
Брян
Marvel
излучения
лом
Предполагается
связей
Египта
похва
продю
майоне
собирают
Сом
доставки
областях
святой
волей
проста
Худож
обувь
Delta
британских
Take
сложных
детекти
съезд
Неф
нихуя
##рания
##ровый
Action
шку
подоро
Постанов
Drama
Пен
уточнить
Родину
повсе
##eL
Врем
Напомни
летняя
организацией
##зли
пострадал
пиндо
нехва
судом
поступить
титу
чёрт
Груп
красным
задание
длину
определенной
налож
НТВ
веб
элиты
Rom
голосовали
появление
ерунда
##крутить
электроэнер
сертифика
стремится
Самая
##ковом
##ванным
административный
бездей
купила
sing
Приятного
пообещал
снимали
акк
письме
##пию
поделать
делами
Каль
наблюдается
финансовых
##юль
Русские
интерпрета
промышленность
рассла
##prf
Theory
##танные
истин
вводить
SK
убиты
открывается
изучал
великой
Via
Необ
товара
##ohn
финансовой
делайте
регла
физической
собираетесь
выступление
ведро
УССР
товарищей
копий
зубов
мероприятий
Sup
холодной
ДЕ
рубежом
##fin
Гото
наем
телевизора
Type
##LS
враща
виновата
модуль
##ровалось
активное
,"
##тилось
сап
нужное
##aya
океана
расстреля
SA
найдены
каранда
Решение
##bas
подош
##бс
оккупации
пират
##точный
##енностью
##партий
##fo
Помогите
уничтожение
Ba
разума
Ирак
ученый
некая
нужный
эксплуатацию
нелега
митинги
ловить
бенз
важны
несло
резиден
участков
##шная
данными
недолго
Западного
Практически
##мур
бомба
тк
Осталось
##мино
Дек
нормальную
Кин
озабо
вата
Улица
РУ
Украинской
старую
помощником
сыграла
##тыш
Патриарх
культуре
Amer
Куй
контент
Универ
попробовал
включён
эпоху
великого
оригинальной
найдется
достичь
спортсменов
заставляют
создано
соотношение
задержали
Ужа
похудения
Давид
Венесуэ
предмета
!),
Sch
лучшей
##ющему
Яс
южнее
корму
sc
отмы
##узы
гостей
облож
gr
извиняюсь
Рыб
агентству
##вилось
Весной
злоу
оценивается
делах
жопы
принадлежат
юстиции
уважаемый
подачи
Tower
подполь
##казали
несправедливо
залива
Гарри
собо
Примор
президенту
смотрится
##метр
водород
снизить
бесит
высоким
представлял
политикой
учреждений
##льский
##енков
прип
##хими
##bur
грамотно
объединение
Здо
прести
пропуск
агрега
лыж
послать
получалось
партизан
##зует
бренд
##row
стомато
чесно
формат
камен
площадке
мощностью
перехва
прихода
миниму
востребо
____
замечательный
табу
Лео
эль
нервы
Аполлон
регистри
##AR
##))))))))
256
чувствуешь
водку
ланд
##пособ
делить
##клюзи
воздушных
##дцы
сестры
Run
исполнение
##бен
Южная
населением
реценз
Sex
Чика
файл
волю
##ровых
граб
местному
учениками
Владислав
вчераш
огромным
медицинской
коалиции
машинах
запрещает
перешла
Фёдор
Future
box
регионального
посетил
Лим
ботин
квадратных
гем
лол
видна
прова
Российский
продается
вир
военное
Будучи
Кореи
##ствование
fox
даты
want
лекарств
max
меру
мужество
неравно
Имеет
##enc
продолжается
указать
Брит
Молдавии
##тру
допро
sens
фикс
##ship
родов
##хнул
ограничений
##ёры
ожидается
предположение
Страна
складывается
##бовь
телевизору
Убий
шатт
Ring
получат
Книга
##тонов
престиж
потребо
##lect
Красную
текущего
навыки
эфир
##рын
Донбасса
##лины
сталкивался
Mart
чтения
Основная
заведующий
приказал
спаль
народы
джу
консерватории
252
ПУ
подписан
девочку
производству
##olog
вооруженных
эффективности
Vegas
Относи
консоли
ждёт
вмеши
асси
иного
заявлении
плац
##uf
недоступ
##вшем
##переди
живые
предстоя
Комитета
пропал
платили
марке
sam
блестя
книжку
читают
попер
фамилию
Иса
образований
господи
Питера
##IT
##зуется
Коль
заведения
планировалось
Лишь
спусти
поставки
морально
звуков
донести
реклами
Обама
удостовер
Рио
Пои
tr
совке
исполнении
Республика
162
замены
Child
ранних
##затор
посредством
AB
веришь
дур
управлению
выхло
судей
##читывать
217
224
ряды
аргументи
4000
Оренбург
##шись
CN
снего
лину
оставляет
прикол
Key
департамент
твёр
детство
сохранились
##диоз
заболеваний
##ялась
оце
дов
пальцев
известная
Пру
PS4
функция
##няки
##дав
правительству
радоваться
квартир
ручки
##orin
точностью
установил
вопросах
приоритет
IBM
проведении
качественно
последующие
дожи
##цины
Дании
покупке
решит
орбит
послал
продюсер
Чикаго
Спокой
##летний
##перед
Банк
юрист
##лёв
поправи
Др
Вороне
чистая
Берг
##изме
##ull
фотографию
Гражданской
206
Система
отнес
шириной
провинция
стиля
экспон
патриар
Уэль
угроза
носталь
бру
Жил
перешли
состояла
ступен
чертов
беспокоит
внешнего
heart
##вости
предполагает
опира
крыши
специального
оригинале
##алами
содержать
западном
##щаясь
мебель
кален
##ксы
весо
реконструкции
путаете
медсе
удалить
длины
слушай
Ирина
опубликована
##графию
Газета
благода
NBC
издал
##лагер
монархи
выиграть
эстаф
##тропо
##лились
##лизации
режиссе
черную
египет
София
пруф
растёт
Христа
##мил
знаков
пропу
##ням
оснований
негров
смеша
##ilo
##лька
Nik
Замет
Лот
объявлен
богатых
круго
извини
Юр
признаков
Роскосмоса
Хилл
методов
пытаешься
редкость
инцидента
##вики
перестала
молодежь
контакты
плату
Виш
##шине
Ростов
спутника
майда
Store
кухню
застрой
радиостанции
##чься
уважением
***
оплатить
Окей
прогресса
Сток
гражданская
##щину
ослож
##ющееся
Екатери
олигархов
бутер
прочей
тысяче
##формация
зава
##hon
##itter
##кову
##Про
TurboDI
Renault
испытаний
угрозу
неблаго
менты
приема
фантастика
съесть
ставили
пользователя
##ОС
поколений
силе
know
##граде
научился
Рогозин
продукта
Эв
дворца
##exus
##ddolphin
vel
235
##t3
хлоп
воевали
##tain
Мож
общин
режиссёром
##anc
##вию
спортом
специальный
Евгения
длинный
архе
Bart_
TurboDIMA
лишних
##вило
208
лете
отвечают
##ston
набере
короткий
##ept
Япония
балло
массового
кулина
Alliance
современная
отличить
коробку
пускай
звании
успеть
##igo
Которые
Рот
НЕТ
Бориса
einherjer
репорта
172
смотрела
никакая
##нётся
Транс
аспирант
попытке
очка
коллектива
уточнил
Золотая
Минобороны
Ара
полосу
Тимошенко
перебор
НКВД
сорок
Луи
проком
красив
Окс
утверждал
деревьев
конгресс
##иде
Зуб
##льда
wilddolphin
##унов
делов
Саль
небольшим
возврат
Понимаете
##енец
броне
шашлы
соцсет
Enter
отличные
бО
Шум
лдпр
фишка
##маз
исследователи
Фрэ
молодого
сфотографи
подписи
справедливость
Удивительно
ассист
кругло
отличное
умение
нифига
применяется
СТ
##зн
Донецкой
странным
Alter
течению
исследователей
дураки
обследо
выступила
жилых
музыкального
французских
ФРГ
##тва
подкреп
фундамент
официальной
спортивной
##mont
Место
##med
##ронов
##КУ
Kings
осадков
отправлять
бедных
учёные
##IN
##lak
##зовите
##ологов
##довая
Тбилиси
Московском
катастрофы
уровню
производит
##iny
Кристи
вопреки
покое
Гиль
требование
уточняется
Идея
фанат
незаконно
##omn
предлагал
kprf
##для
дополнительных
бесплатный
участником
inter
спой
212
заез
##ЕГО
тракто
зачи
качеством
Cr
единственной
республике
##яло
локали
патриотов
недоум
лежал
Причиной
##колы
приклад
источниках
старин
Конкрет
Кс
##дании
тонне
проживания
АО
сингуляр
Средизем
215
##ализм
трез
свидание
найдет
Остальное
трамвай
неэффе
найдете
шпа
непол
черты
малыш
##это
оценке
##ченые
213
числу
фотоаппара
##_g
##жени
парад
наблюдателя
выросла
dim
##шину
резолю
компроми
Машина
тесты
монастыре
кукуру
купа
вражес
музыкантов
работах
девяти
возможным
##лила
проведена
##вляться
взво
града
Посмотрел
ФИ
выдает
Екатерина
подойдет
функций
рефлек
.[
намест
основатель
участвует
лошадь
качеству
служит
зме
прокат
?))
американским
ошибаться
##лоу
воспользова
##ченную
свободе
являлись
Чили
Василия
##льщиков
##национа
активными
давить
гно
канали
похожее
согласия
реабили
прототип
выгоднее
##семе
посольства
происхождение
завтрак
планш
дешево
осуществи
разбе
социализма
рейс
Напомню
вызывать
спрашивают
рисунок
Вопро
Атлан
международном
разработчиков
напомню
бабы
подойти
Осетии
предсказа
Тони
менеджер
значительной
приказу
поощ
зиму
Мей
тяжелее
Луна
возить
##ago
##св
дефицит
##графа
Hell
достигнут
вымира
сжа
202
фестиваль
анонс
сотрудничество
небольшую
##MS
выложить
выбирает
восстановления
законно
Строительство
непре
Бет
проща
big
особенного
Меж
умеете
покоя
корабле
опубликова
нае
молодё
нью
падают
цара
##жев
Изна
проверку
футбольного
прояс
Чисто
Роберта
френ
срабаты
hal
паров
Эсто
Агент
Григо
экви
Заха
докла
##благода
парашю
домах
Наверняка
звонил
водители
забе
##roid
коду
одея
скорую
скоп
Ташк
процедуры
храме
Второе
хром
актё
сопротивления
воспитан
ощути
Якут
Иоанн
Востоке
##ple
Волгоград
экстреми
передача
?–
стим
Стэн
Хабаров
форс
хип
##ковки
подтвержда
чья
жестко
Дик
204
Верховный
##спон
пускать
оркестра
интеллиген
вакан
обнаружено
##льям
ВМФ
стили
##чике
классификации
управлении
##юре
людое
Абрам
##atch
выкиды
Ваг
аудит
получаются
##CA
добавлять
аппетита
Дону
##ИТЕ
уведом
Грей
Генна
MM
##гресса
Францию
реализова
Pl
коше
планов
Eternal
колледж
грех
Говорит
Манчестер
свободный
380
##itu
этажа
встречаться
лезет
текстом
##енег
деба
Roll
GenrichMatushka3
Сак
обвинение
спецслужб
соседней
##рыми
##боли
ненорма
пользовался
понимая
болезней
уроки
Qu
установили
роботов
##libom
Смолен
били
Институ
подразделений
Разрабо
разный
этни
Biglibom
##оста
жанре
автобусе
##мога
проявления
Снова
насилие
тарака
иннова
десятилетия
версий
посовету
Глаз
Орден
зану
Психо
шк
##вени
ходатай
вопросами
геополи
картине
##рению
черного
1074
##вёт
правление
напряжение
экспертов
успехов
##культ
оборудова
IP
Кремль
Хосе
замену
##alk
##сель
советник
##Head
бегу
пересек
КНДР
вернется
##жаешь
бону
подходят
топик
Премьера
спросила
ПС
танка
крупным
nick
архитектора
опозна
дедушка
Хей
муки
юб
намерены
опрос
характерно
##жаете
Вологодской
Новые
казни
просили
ставки
мино
»).
Театр
сыну
массовой
Южного
изданий
340
инста
захватили
расшиф
##зино
##ённость
способно
разная
президентских
любовью
вдохнов
Стоимость
силах
##чику
ГЭС
ММ
##amp
##лес
виновным
ЦИК
сектора
тоталитар
##як
идеале
##жись
инструменты
летия
гражданских
Бил
покажу
Пиз
благодарен
коммунист
участки
угово
википедии
эска
pom
Player
квартале
foxm
исторической
деталь
211
левый
помога
кошек
##левой
медалей
видимости
подарки
##гугли
Средняя
Узна
итд
петербург
##дением
Рен
союзников
##кель
региону
Будут
зп
##шан
ll
каба
##aki
##https
совесть
приват
помощник
европейской
описал
запада
ОЧ
ЧД
препараты
##говари
интеллекта
куплю
##летних
смс
островах
ценностей
эстети
##пками
конструктор
Объе
Витеб
тексты
Test
живете
приё
полномочия
некому
Мэт
пас
синте
страдать
княжества
##езе
деревен
Пожалуй
сухой
Челябин
Мем
обстрел
автори
Ru
входе
вкон
заплатил
ответила
традиционно
##вающее
мыть
слух
огнём
компак
Наверно
взглядом
Тверской
полагают
##поля
##ible
##com
проходила
уважаю
##глядеть
железнодоро
работаете
пропагандист
меняют
ph
измеря
жестоко
Mot
##нгви
Высота
##ount
советская
округов
урок
Олимпиа
ШИ
NY
падать
компетен
деграда
Днепропетров
обеспечивает
##ower
бойцов
конструкция
убрали
ID
Бого
Cypri
изъя
третьим
одиночку
##вий
##Norw
факультете
Джорджа
SP
плы
##bon
духовной
щу
любимой
проверка
свалить
видо
королевства
IS
ввели
древес
##urn
прилично
заговор
##маном
AP
Хак
меркам
молодости
Лучший
##хера
трансли
ставил
##ants
искали
##an_Norw
##an_Norwid
хрони
предметов
вранье
подавать
надежд
империя
держал
эсмин
наступления
Женщина
##ensis
сотрудничестве
музыке
Подска
Cyprian_Norwid
Mon
смеяться
изучить
яйцо
кабинете
Черно
банкрот
10000
выражения
взамен
физико
администрация
Мака
Киргизии
постоянного
лайн
возвращении
ЖИ
((
ниш
сайтов
важным
Алексеев
Управления
НОД
Рэ
дисциплин
отрез
##ганы
магистра
выполняет
внезап
##цин
столицу
##тировали
вытаски
##ХА
##докс
девушке
##ктировать
покупку
отказалась
русофо
##vent
полку
Чарли
преимущества
##тоне
Тихо
заслуженный
Смир
высших
Мекси
руководству
национальности
XXI
траги
подсу
бронет
протокол
лишним
камней
аниме
станций
Happy
##хивает
Dis
общественный
поселений
Южно
постоянной
##шами
##тируют
##хим
платы
снимал
умерли
медицине
размы
Local
Ice
подъем
сотрудника
несуще
##rol
Причина
свал
Source
##ЗИ
##US
немецком
восприятия
##зербай
Fantasy
курорт
Сон
Амур
Проще
данное
премия
хутор
далё
реализовать
222
##праве
##mark
##НТ
проезд
Papag
польского
фашизм
частях
Роста
принимала
мотивам
##cl
207
довольны
Papagalo
месторождения
##вавших
##iver
чин
лихо
классно
Дим
завершил
Южный
##zon
основателей
блага
Бабу
пугает
привезли
Рядом
исторического
инфу
телом
линий
телеграм
определенный
чувствовал
обработки
Twitter
мелочь
шутку
Звучит
##тировал
Брод
##матов
стреля
кэ
Ющенко
командующего
##гере
##тическое
психиатр
фельд
##aver
;–
исчер
проро
Kalv
##АП
игроки
чуж
трижды
получишь
опубликованы
смех
комик
свидетелей
##ump
##нировать
добился
массовых
сё
ареста
##правлять
ЖКХ
соборе
##НЫЕ
платеж
##ционально
тонко
теракта
Oh
любимого
взрослый
учёных
чувствуют
##зербайджа
БЫ
Ситуация
мирных
эквивален
Mind
наблюдаем
народе
нынешних
конфигу
статуса
напар
мороз
Университета
пенсионе
окраи
возникла
страдания
насиль
мином
##зел
##зировали
желает
##комп
Государство
серьезный
предшествен
недостатки
КПД
следовать
##зеры
ящи
колосса
Владимирович
Масса
страдает
Вашего
жюри
##чени
мужиков
ритуа
##енна
##NK
Вариан
просве
Kalvado
##лость
##пост
##ённо
провоци
ставлю
##хват
банку
##нено
дрова
мировых
##браться
влияют
дым
беженцев
Яблока
пир
военном
##ashka
объема
kn
Барт
закро
##веши
чеки
##ranger
##щенная
захватить
##дво
отменили
психолог
изобрета
##chu
признали
бензина
##изму
польский
прокуратура
##ffer
президенты
Пода
Ель
бараба
держаться
терактов
ритори
выгод
##alt
IB
увлек
##вёз
Общества
приехала
вда
торговых
седь
игрой
##ital
одобря
Дин
формирование
Знамени
воссо
##язви
##слан
значительное
криста
Считается
Таб
##ivers
Ближ
познакомился
кита
клубы
##ровало
схож
жителями
Токио
перечисли
горно
Гиб
штрафы
педофи
заказать
забот
спасать
постановление
передачу
страницу
краев
пьют
соус
##авто
воо
Мэр
мурав
Pav
Сэ
телевидении
Джефф
голосует
проводил
фаз
ночам
##слом
##сной
Антонио
решается
##дья
##ствам
выделить
достигла
прессе
ядерной
предше
покупаю
автопило
Рив
особый
Кала
умудри
замка
административным
опыте
политоте
)...
попытку
нападение
##фир
пили
##сец
обвинению
плюсов
##уза
физических
животного
Татьяна
легали
плоскости
медицинских
правый
грозит
AD
привати
повсеме
закончился
МГ
коррупция
##СКО
выступали
##вишь
Леони
##стыми
Последние
Перу
обвиня
переводить
краснень
вырабаты
миссис
Подозре
хала
религиозных
манья
музыканты
##см
устраивают
Восток
законодательства
подумали
черту
учётом
Xbox
Первом
плеч
##_Stranger
Insomn
вытащить
тяго
совпадение
специалиста
##asa
SR
раста
##ПУ
выдают
непросто
коктей
##бле
станцию
wi
подхода
шею
обол
##fort
##чишь
##маны
шуток
похожие
семе
card
Eternal_Stranger
Уор
модифика
##гражда
составило
SE
раунда
предатель
стоил
рекомендации
категория
Роснеф
примет
ox
изделия
бэ
молодежи
реанима
Int
реальную
Преду
лежать
фур
считаем
белой
##торо
##Как
моска
законопроек
копеек
##aron
кухни
намерении
Голов
SSD
трек
гонки
кататься
страшный
фронтах
крепост
сино
будди
Пин
##гена
революцию
швейцар
Кун
попутно
пароход
Российского
Киевской
gun
Видите
спине
Той
повсюду
##ild
Fin
обязанно
дешевый
##_c
жалобы
##раны
звуки
объявления
##думал
существовании
административному
наслажда
)"
севера
предпочитаю
поработать
выступая
Мю
##ловину
созданный
левому
достал
##ery
гений
показывали
сменил
Британии
организаторов
дове
отсы
досу
##ппо
большевики
обтека
международным
запер
заднем
профилакти
зарубежных
вращения
Октябрьской
критике
##боро
супермарк
снимки
старался
человеческих
прикольно
##хле
задачей
Комму
обеда
Исследо
требований
уничтожил
телеско
##стике
заявлял
занималась
часу
Ны
##тают
очер
успоко
Здорово
##дика
инцидент
##нейшие
цикла
##клы
##йо
персид
терминологи
заключил
гроб
НП
Вывод
колоколь
аэродром
принца
Статус
рабочей
##жер
Обязательно
праздно
обь
ЛЮ
упомянут
листов
таска
##ложены
Штатах
##oka
подошел
обога
прези
пейзаж
Египет
##звез
лодки
##пые
учится
центру
поляр
##рман
ванной
пешехода
реальностью
востока
аппаратов
##unga
выбраться
Молодец
выбирают
##лкам
перена
прилага
барах
подбира
Эрн
##hov
позиций
браке
остальной
сюрприз
##рующий
##PD
комменти
заставили
неправда
сду
OF
альян
Чарльз
Такого
минера
простить
Stud
Ac
инженеры
англичан
Холо
кратер
учителем
вооружённых
blue
сражения
потенциал
профсоюз
называлась
Наталья
нанос
тва
##вется
оборону
непредсказу
Auto
пролив
четверо
Верховной
Безу
выяснили
психологии
##ield
Пром
отставке
оскорбления
##кивает
отсутствием
##точные
тяжелые
Артур
##ЛЬКО
Граф
симуля
ненавидят
расстраи
флага
##annay
властям
стабильно
долгов
типичный
Rain
вашими
влиять
пустить
путать
##рису
деятелей
Orig
##носится
сидень
патриот
##ream
некие
рэ
Гонкон
отель
Класс
идем
конституции
БЕ
##ojannay
региональных
##stone
##a_Junga
культурного
##ojannaya_Junga
Dog
Pod
green
впадает
Свято
натя
указом
ценз
южно
манипуля
работаешь
офор
деви
разговоров
##sc
приводить
происходящее
выезд
китайской
расположенных
##слову
##ИТЬ
##raft
##otton
художественной
включают
крупного
доз
кандидаты
световых
отрыв
получаю
пошу
большинству
##кис
поэзии
муниципалитета
нахрен
Великий
рит
ЦБ
Sci
221
устаре
швейца
военнослужа
##дис
мешало
Тип
Сап
работники
коричне
содержится
неред
предоста
Всероссийской
журналисты
##влены
заходит
специальной
собер
Прекрасно
чести
автомобиле
пуга
Postojannaya_Junga
современным
рог
заработал
##рги
##берба
собирает
Казани
наименование
pass
съезда
возрос
АЭС
1100
Непло
##тль
##восто
подняли
##болов
Gl
проводили
209
слез
##1ac
строит
кроко
Советский
зелен
кавказ
##сера
Pink
##270
значительные
разбо
Думаете
боевики
Произ
##enta
Касьянова
##_ru
совпадает
сотрудниками
Тун
позади
обсуждают
инженеров
##ican
неверно
Оби
##ray
Саша
ВУЗ
водя
полицейские
##бас
травм
Пас
##alet
Insomn1ac
низкая
инбокс
обратил
птицы
славы
vis
задал
##простран
##каче
жителям
Млад
любез
##уны
(?
источником
обя
##ладель
инструментов
написана
собрали
спиз
длинные
восторге
аккумулятор
итого
Четы
бесплатные
##сада
носителя
горь
цили
разряд
тата
##виль
##стречу
горных
##кобес
##Station
##лингов
справо
даром
Воскрес
москви
Река
Союзе
полетов
Right
##ализация
Off
Инцидент
Первого
Энергия
обход
белая
Рем
читателей
маск
кафедре
##ъём
##надцати
##лели
моментов
сезонов
касс
Mobile
Колом
нуждается
кредиты
свин
Дениска
отзыва
##енде
Олимпиаде
салат
собственным
деда
##chik
панели
носу
Физи
напишите
Мэри
Польша
Where
Дам
повторю
конструкцию
нравилось
##То
Лап
честные
Народный
Адри
##фель
241
Предсе
производится
Собира
прямая
ковы
турецкой
трудности
итог
##родного
войной
покупали
задум
съемки
поездов
Генриха
Дере
Call
узлов
Меч
юрис
валю
называемый
горло
комната
##етка
министерство
Мост
обязательства
распоряжение
##КИЙ
защищает
траха
Бук
историко
предполагалось
##AN
недостаток
хана
##пыт
уточняет
краски
Камчат
отталки
святых
Башкортостан
формате
подразделение
взглядов
послево
обслуживания
Эдвард
затру
агрессо
кислоты
горах
колес
Fl
показатели
##rod
небось
потро
кардинально
Смоленской
принята
состоят
##тела
##щегося
Афганистане
наблюдаю
Виталий
2020
пенсионерами
полученных
террористической
тягу
ролике
Ленинграде
##++
зачис
Хозя
наступает
компакт
##стром
сфери
Генерального
поступки
##osm
проживают
Слово
центрального
Победы
подумайте
мировую
живым
##уты
квалификации
владельцев
1083
гражданского
Дя
матерью
серьезных
Центральный
высшее
радиоак
платформа
##ense
преобразова
входило
несовершенно
младшего
правому
Вьетнам
##льского
Full
Лай
запуски
почте
Израиле
лже
##круг
secret
##ици
чек
настой
представил
Форт
российское
спасения
травы
продали
прямые
##мяг
дочерью
последующих
показаться
Йорка
Холм
долине
Гло
216
севернее
числом
сесси
дискреди
##фол
восприятие
велика
монеты
заеба
представителем
крю
Здание
##мол
##Так
обладателем
##azer
культуру
Главным
Протон
Титан
колени
пожизн
структуру
капель
основано
##шных
лауреат
##лово
статистики
основой
переходе
посмотрели
ранга
Кейт
##ентам
рецен
таковой
чудеса
–&
Узбекистана
Быть
##соры
расчёт
блон
аукцион
подсозна
даю
##Мо
принесли
переходит
##эля
Рик
увидит
анон
Какую
##дках
2500
построил
спроси
удается
деревень
загляды
Процес
инстинк
барабан
секрета
круга
HC
Фонд
встречались
##ional
каналы
многими
козы
Гро
##чествен
отряды
Решил
Пенси
ролики
Идите
214
##rim
тариф
исполнял
say
трак
библиотек
вдво
эксперты
##колов
жанра
Внутри
певец
капли
Команда
российском
Милли
226
статусом
копии
произошли
ОР
предоставля
узнаю
особенность
Брест
коно
польской
Гля
помы
едини
Аргентины
отреаги
обосра
партнё
погоду
ров
выпили
покинули
pomorin
погибло
классической
сорт
Бесс
обратное
священника
заключение
аргументов
осторожно
пойдем
540
цивилизация
графика
умирают
Анджелесе
тяги
маленькую
Раст
Белого
оттен
гарантий
сроком
##стеры
устроил
Марка
называете
Культ
==
бумагу
помнят
##инго
безработных
стерлингов
любили
соответствующие
страховка
кубометров
Хад
PR
Калифорнии
высокопостав
альбоме
маленького
студию
деф
Bros
наукой
справки
сг
техно
антен
состоялись
низкий
##кратце
##????
Дог
Румы
наверху
личным
Ростовской
Lu
Virgin
применить
подтвердили
заседания
пьян
трибун
##вину
национальную
предусматривает
чистом
Golf
##колад
Mak
Комитет
движении
всеоб
Веро
эффекты
Жуков
лету
портал
итальянского
Револю
субъект
##горо
присутствие
назов
формулы
рельеф
губернатором
##вам
##логию
исторический
доступно
Storm
ЮАР
275
столетия
Срав
##шив
имело
ограб
бьют
Выглядит
электронной
социального
Реп
##плата
Mag
риту
максиму
виден
слушал
развала
разделить
пиксе
переселен
слом
нарушать
врут
этно
грузин
Пьер
##eng
поднял
необяза
Мастер
Римской
командующий
изготовления
думы
причастности
Родины
утрен
обид
ролика
Мальцева
##roe
вспо
стери
намерена
направил
печать
выбер
232
Command
Hard
комсомо
Администра
освобождении
сведений
изделий
занимают
##ЕНИЕ
##лию
актёра
Свердловской
итогов
адвоката
Браун
прекрасная
дебилы
крыла
кой
Ави
Александром
америка
Portal
Джонс
ИГ
планах
недоро
##мышлен
немецкие
отправляется
##ленном
термоя
проектом
шабло
кво
провал
Сезон
##umb
обнаружен
уничтожения
пейза
угада
##взя
Бюро
отрицать
Инди
##ыы
троллейбус
310
лимо
Утром
архите
приняв
BMW
##x4
идеология
инфо
флаго
хари
кустар
возоб
глупый
ремес
Испания
##миться
Деся
совершить
Зеландии
хорват
получивший
Институте
Зай
любители
извле
внешних
пани
увеличения
##разви
пикабу
255
спал
нервни
свидания
подтверждения
уехали
адмирала
уделя
##филд
захвата
Почитайте
спортивных
обслуживание
ПРЕ
владеет
кинемато
Русского
сур
ништя
##бэ
захватил
Вильгельм
Пять
преследования
закономер
ходила
ик
установка
ЕД
потребитель
Grey
суверенит
закре
войско
вытес
частенько
##разум
украли
##возгла
резю
##дового
окончила
кома
метрах
продукцию
Cap
ролей
выразить
водохранилища
Bro
опусти
##uce
инопланетя
##ington
##uka
True
##стную
старое
помещение
дополнительно
скандал
привела
стресс
##чием
##ктак
супруга
##дними
фраз
католической
анга
конкуренция
мелкий
##iant
лишние
##31
##жью
помогал
кристаллы
ложи
подозреваемых
Gre
победой
кольца
Франсуа
проверил
pi
зимних
мероприятие
пешеходов
##гую
медицинского
##ages
потратил
верил
сравнительно
Серебря
контей
пожил
##сели
Приз
Cotton
##ekt
##евро
аренды
фактом
##чивый
отметила
микрорай
занятий
джаз
капитализма
##дё
вагонов
дискуссию
##аке
роботы
плохих
тепловой
Полиция
данная
Алексеевич
370
##яю
##vers
заставил
##лости
##нив
община
Харт
Because
##can
почет
нара
отцу
##кок
выку
нелов
вспоминаю
Сау
концепции
сработает
невиди
оценивать
Джозеф
развитых
деньгах
##утер
благополучно
местном
сдал
вещами
##пите
##чье
воб
##кнись
##план
сиськи
мужчину
Food
усо
Шон
порекомен
наруши
сессии
взятки
Нер
##фонов
Третья
бОль
Скажу
издан
Link
угрозой
Киевского
отставки
соло
мастеров
приняло
##сово
aa
отвечаю
мракобес
monroe
аккаун
балета
позициони
##Kz
тора
Ульянов
сложность
ногах
сооружения
Челси
галактик
стимули
добычи
фортепиано
переулок
:).
выкинуть
выпускать
женского
мозгу
##ваемого
положительные
id15
##сках
бот
боего
Имя
китайские
механизмы
##страхо
сильней
анализы
Третий
дубли
Хорватии
предков
пойма
сия
##пар
Территория
рет
зано
гермети
Туда
крупнейшим
малых
420
!",
поступила
баллов
уло
конкретном
молодёжи
медвед
##льп
rad
среднюю
веках
палуб
Василье
таба
проведены
##вляют
перестанет
Зелен
кричит
##ЛУ
Отече
##генов
##ject
передана
огор
быстрый
стратегии
CottonHead
"(
Власть
американском
сообществ
самовы
##беки
заводов
сериалы
прокуратуру
##мед
инвалидов
зач
соображения
шкаф
Депутат
Эко
считаются
растение
малого
идеей
Канада
Куч
##доподоб
дано
##вне
дифферен
рта
##СТВ
##light
красная
отрабаты
выглядел
Юпи
брони
сфер
Дви
Вок
убийств
подписали
Лондона
##рань
беспило
опубликовано
##сени
достижение
id17
случаем
тома
Шевченко
потребность
подобрать
458
физику
Северном
крутые
НИИ
вступления
##берите
референдума
Конф
Уголов
##OM
представляется
##динг
легких
Арс
картошку
ГДР
сооружений
##apt
обновления
драго
Чо
финансирования
собрался
нейтро
Sub
введения
ледя
Гил
пенсионеры
покор
дачу
восточном
злой
огромную
увидишь
бомбу
##мбо
предположения
литов
тащить
исполнителей
наверх
резон
Мексики
Большое
Наоборот
огла
назначение
прохождения
##матривать
##ents
лицензии
приспо
отделом
238
синтез
Тимо
задолго
##устрой
Конгресс
пофи
композиция
Хмель
Ез
древние
приводят
Приятно
Мира
бега
##ьева
Perep
политическую
биат
##ives
выброс
умных
ложки
##щались
Мая
фильму
английской
223
мужской
Банг
арестованы
жирик
попросила
##чивается
Пушкина
майдан
эксклюзи
научным
приключения
направлены
чётко
человеческий
изучение
покажите
горю
учет
арте
иммигра
PerepeL
средних
сборки
воинов
Ката
герма
проблемах
понес
юмо
депо
Tor
синий
##кторе
находясь
нарисовать
##мец
##матери
Bang
похода
понятна
видеока
чип
подлин
супруги
играла
##бее
##зость
полёта
Законо
леди
Alt
постараюсь
апель
Луис
долгосро
джо
эффек
Нижняя
предыдущий
возглавляет
пляж
салоне
автономии
телекана
закончились
мужского
яиц
излучение
принадлежал
спин
Проис
нра
##inn
пищу
##сье
сбора
блюда
активов
##дёшь
##нины
Самые
организме
YNK
композитора
Лё
##женности
традиция
пробовать
безграмот
Белгород
живём
Чехи
Западном
##ька
Демокра
##етта
судьи
Вуд
##вида
срач
перешел
обществу
волейбол
подтя
заседание
дофига
##tern
##ллин
готовят
незаметно
общепри
подел
##СД
ждем
сущности
##кладки
##ллера
Лок
##tle
##стку
##гвар
символом
важную
копипа
Оска
Крон
достоинства
охота
мода
Действие
служб
шари
##мила
##encia
образа
превратился
танковой
!))
Минск
косяк
CEO
тропи
##day
фре
Край
Бель
испанский
отва
безы
приорит
простей
Кук
SergKz
Число
появиться
рекоменду
##ливает
изгото
##цебо
Крымской
описывает
##дые
препаратов
sl
пуши
эпидеми
ехали
париж
Вики
##чане
самоуправления
восточных
Следовательно
заж
##пела
Кум
свидетельствует
##ГДА
Лоб
Зелё
рассчитывать
##ровень
стремительно
218
Станция
поддержал
лучшую
Comm
оск
песо
открытом
Юлия
Мэн
бин
водорода
Увидимся
добавлю
живы
сочинений
Константина
метрополитена
##BS
исполнил
Мэй
торт
всевозмо
западные
боёв
##лоб
хера
использовалась
муч
CNN
успехи
##альна
сигнала
продаются
картинок
сотрудником
Funt
здоровьем
странам
компенсации
офицера
сделай
dav
##блок
Rad
жидкость
##рядо
постом
октябрь
##лип
итальянской
MC
##тоном
остальными
440
высокую
##читали
брез
технике
Тель
подобную
соединений
постах
гемор
ставший
давлением
##стила
образуют
тормоза
моды
азо
бежал
интерне
вела
Робер
созвездии
id13
гора
лют
##лялся
рацион
GPS
##ранс
больного
парламентских
Данные
становился
Игоря
кура
Слова
разря
##зились
участниками
сцену
весит
##литет
восстановление
пьесы
идеальный
Жир
girl
представляли
пиши
Предупре
законе
Mo
отбира
крупной
CA
##ааа
мах
##ury
ЗАО
изданию
технологию
Pat
церквей
клиенты
происходящего
Pavol
##нитесь
лох
Next
переворот
квалифици
Район
Управление
пообщаться
интересным
Ant
маленьким
гай
Коммуна
##orth
изучению
фейсбу
нище
проживал
безнаказа
##евская
личная
выставка
цей
стиму
встав
предполагается
изображением
полки
второсте
##win
брош
иера
сильных
потерпев
скрыт
Архи
кви
отсутствуют
роде
Курган
аккаунт
имеющие
Лью
неоднозна
Sm
декабрь
Хуан
воруют
Олимпиады
Федеральной
облом
футбольной
департа
Парна
дика
Rev
передаче
докторскую
метода
профессионального
развитием
азиат
Why
объявля
определенного
таин
визита
##вляем
начинали
Доп
повысить
##gram
художником
редактора
навязыва
преслову
политическим
дружно
Лидер
долбоё
прибре
берёт
барон
меньшин
дойти
спрашивали
Геннадий
одежде
Собчак
Республикан
Альфред
##рога
мясом
документах
границах
выборам
танце
рассмотрение
мудаки
Новое
финансового
сеан
сентябрь
прямым
женской
промышленных
цифру
феномен
жидкости
страни
##ello
интегра
##ote
##ЩЕ
Основным
противников
диаметром
журналиста
королевы
обратились
Тема
уксу
тун
##ongo
##извест
##пает
Начи
камере
вектор
положил
шире
кармана
придвор
##rig
##рилась
Колумбии
преобла
предпочитают
Уэй
пидара
важней
праздники
Ожидается
##ведите
пополам
Prof
Рады
учреждение
тим
USD
Генерал
##гими
Kind
Фактически
сумме
##испол
ере
металла
pap
петь
проценты
Ля
нюансы
##центр
фем
имеющих
лун
форум
противодей
пруд
248
выдали
отмечал
гав
подъезде
контекста
тянуть
уступил
##жках
вернули
посыпа
пав
Дона
Sou
истребителей
##rade
главные
получиться
европейские
считаться
##отечествен
##Если
Екатерины
попере
мане
сообщают
Av
##платы
Мину
##лс
женщинам
##рский
описан
съезде
диски
Руководство
гитлеров
…»
Рекомендую
Каф
сбрасы
правильным
##дине
древней
океа
850
Шел
обороне
нидерланд
Ассоциации
заголовок
включена
горячей
колхоза
правам
предусматри
высе
Univers
стрельбы
tar
предыдущие
съемо
хак
Владимиром
##rist
Будьте
французском
##сне
Гиркина
Богородицы
##олога
pan
Англия
стихов
чувака
тройку
##ations
234
видимому
Недо
берегов
медленнее
выплаты
##сном
упре
толст
списку
Красная
трава
руля
выводить
напал
страховки
##ганов
Правительства
mor
конь
езды
Выпуск
отчёт
Гот
##рс
закрытия
Хмельниц
выходил
##спиро
Guard
кратко
дошли
Евросоюза
посмертно
##rain
Вольфович
легендар
находящихся
пунктам
помогла
продавец
пусков
романе
ядра
пропове
Перевод
собеседника
факто
прошлым
нарушений
##пенди
гавно
Столько
##зовый
выпе
нынешнего
##bot
отчё
зачёт
появляться
инфраструктуры
Моз
отстой
логикой
упоминание
Империи
гендиректор
подер
231
геев
Стокголь
кажутся
Пад
условиям
оспари
балет
осваи
##bout
солнечных
походу
##цет
боялся
семейство
площадку
помощника
юга
Юг
##няем
письм
Явлинский
преподавателем
сухопут
лёгкой
Cat
заключении
Кэр
набрав
##wagen
дешевые
предупреждение
насекомых
DE
polit
##ющимися
Сей
##тут
дверей
ecort
копию
думу
жарко
сочинения
автоматом
медалями
ситуацией
##скри
Рафа
Подождите
отказывается
kar
единственно
##ious
гнать
относитесь
фильмом
Любовь
Cold
выписы
размещения
##скидку
##aste
оскорбление
следующая
планшет
dark
Московская
Оши
mini
312
чемпионка
репети
еврейской
бактерии
прокурора
зима
ЗЫ
305
dis
##совета
##ерией
BB
100500
лоп
вооружении
процессор
лаво
вулка
##СУ
253
оставив
передавать
предлагали
железных
Аналоги
диване
Вах
Анге
нулю
##квозь
почер
сцеп
##роном
перене
баре
графике
заметила
давным
##ндром
эпизодов
пузырь
Эш
##вершен
характеристи
статусе
Неболь
пель
доказано
метео
технической
##реться
Нижний
look
обвинять
среднестати
##ТБ
депрессии
хирурги
подозрению
перерыв
организатор
Костром
Эрик
совеща
комедии
ТЭ
Stage
удаётся
заявив
называются
готовится
кандидатом
Сталинград
обнаружить
различным
доводы
звонит
светит
##рьмя
воспитание
новостях
Сотрудники
укрепления
списки
погоды
##био
работаем
ноутбук
Спраши
правди
##щенное
съездить
клип
обмена
##детель
симптомы
##oga
глазу
Жур
использованы
готовности
зажига
посетителей
популярности
делая
вслу
вулкан
super
температур
Техас
адекватно
рюкзак
перевозки
подни
популярной
Total
сопли
Успе
##губ
Получил
продолжали
Drive
##делка
стоимостью
##тавли
экспресс
хозяев
полицией
честный
декора
электричества
количествах
белору
Фалько
увидев
трудов
опровергнуть
административных
российскими
едешь
родном
тупых
экраны
значительную
##itt
географи
выпущено
просьбе
посре
гриб
крыша
##тна
передвига
процедура
переживания
Директор
Благодарю
сторонники
чистого
Обратите
исторические
выступают
пройдут
Legend
умеешь
церемо
обзо
совершено
соотечествен
потребление
Рав
владение
Pol
строится
нужную
Романов
сильным
двадцати
бул
##ложена
мирно
прочитали
завершился
Андже
крейсер
Honda
ЛИ
поздравляю
Советов
CC
##oth
Новгородской
русскому
легкий
прокурор
некраси
тёмно
Ари
трагедии
Стариков
нравиться
структуре
сгу
Лас
хардко
ПРА
носят
иным
##тчики
Представи
железнодорожного
предви
офиса
##усь
прорабо
белым
##шкам
дебил
бывшим
повести
мраз
Res
гору
протек
знакомого
##хий
Павлович
сетей
снижения
агента
закрыв
агита
Вят
239
старается
функцию
идешь
политоты
соперника
компьютеры
фоток
Кавказе
ХО
шагом
больший
поверите
драма
##кен
Итальян
гига
академик
264
rom
Дагестана
227
плавно
Уильямс
поставок
Неме
Титана
Гим
противотан
##urm
концертов
научить
литр
##ходятся
Швар
нерав
Пау
летию
троих
Тей
служи
надежде
очередная
раздражает
прус
транспорти
статистике
365
коробка
Дит
##tha
чисел
технические
бирже
располагался
советов
##надзор
##птом
поддержкой
четырьмя
поближе
произошёл
отцов
некомпет
трубо
375
Денег
грома
поправки
##шние
Рома
отличился
Devil
Индонезии
запрета
федеральных
–)
бон
возможностью
считался
парламенте
Густав
дизайнер
Амстер
##денный
крути
мировом
антина
рога
приобрела
удивился
раскру
бывшая
##мому
таблице
ФА
красных
Геро
Необходи
Люксем
ногой
Крис
классический
основное
##фикацию
папу
##_C
выглядишь
##экс
##ствовало
крепко
Elect
космонавтов
факу
SV
Уильяма
розыск
группами
смеши
обстоятельствах
рейтинга
Герман
val
забудьте
спя
пароль
##лека
Приказ
выпустить
начну
героин
свежий
Защи
головах
Абхазии
сильной
##цкой
Произво
молодым
чех
Стре
килограммов
обладатель
недвижимость
красивых
##дётся
предпочт
постить
посетить
##рают
вакуум
артефак
допи
Фредер
подруг
навстречу
песок
Эб
федеральной
здоровый
Колле
пети
сара
домик
##грей
КС
интересуют
остального
аспи
классу
коллегии
ликвиди
вертолет
обочине
заготов
##БИ
нея
ракур
главу
RC
##щался
модно
roll
265
свободной
туп
воздушного
##room
кандидатуру
репресси
жира
священник
перестро
нелепо
живого
встретился
Писа
польза
психиат
корни
сопостави
обуви
соавтор
##метра
отделении
отличием
Белый
племени
освобождение
Хра
##дись
крупнейший
Эксперт
прихо
Pe
##вающим
Flight
объяснили
злоупотреб
Ирланд
сервера
армий
пятна
разряда
Араб
##ИН
sn
советника
##чером
признаться
Секрет
Термин
##раль
потерпел
##каться
городском
живешь
капитаном
органами
общении
##костью
реагировать
образов
Сложно
пригодится
народный
оправдать
##нены
##поро
индустрии
##ots
обвинили
Капитан
объектом
минуса
would
международные
Любов
##oph
проходя
Жду
крут
Знако
Класси
##чьи
иниции
Университете
коммунизма
беспри
иконы
тих
классика
262
##чались
угля
правосу
дорогам
##a3
Норт
недовольство
Вольф
входя
незадолго
поесть
Nat
железная
Иисус
Европейского
головного
сторонам
разработка
##фли
авианос
оставила
весё
кухня
сайтах
широкий
##elli
пато
перечисленных
##кнула
##pl
Work
гарантия
итак
##ницами
кампанию
228
графики
РОССИИ
радиу
ячей
оговор
снимок
##omo
мировая
художественного
перестанут
учебного
Неве
дозво
брига
##actor
творчестве
рисковать
энергетики
закончили
##подроб
Народной
сидела
кока
##НЯ
заданий
##skiy
##aid
обещаю
Российские
520
зарплат
ценник
Движение
суды
мемо
выпустили
##НОГО
Одной
тьфу
упомяну
##reet
рыболов
Начало
займ
обратной
##кни
дочка
Рима
##вело
убивали
Форд
заклина
МиГ
##_G
пускают
назывался
корректно
Линд
шампан
греческого
глазом
переписы
##рены
корон
трубу
металлов
##льской
предки
боги
альтернатива
разработал
пишется
фрукты
ОЧЕНЬ
транспортных
Грен
##eh
##ific
взялся
вставать
импор
Король
закрывать
приобрести
крах
243
рабство
##правление
дворце
##_Pashka
присутствии
прозвище
##почка
##LA
извинения
затоп
##fs
Херсон
потенциально
иерархи
движки
##83
раннего
повест
ШИРК
Франциско
dr_Pashka
##!!!!!!!!
Калининград
Остав
дач
полем
распространены
##ссией
##При
реформа
золотую
Пт
слушаю
##нько
телефонов
тишина
левого
улицей
дерьма
Насчёт
Трудно
перенести
Джеймса
##ейте
завершить
сыра
ведущий
воры
ростом
бывшие
IG
шасси
немецкими
боеприпасов
Корея
Net
взвода
фитнес
обостр
неопредел
Еф
тяжелый
душой
Эффе
габа
##МЕ
90х
приобрета
##layer
обвинил
молодая
##гивает
нарушил
мала
масштаба
дискри
Друж
##СЬ
##пился
Понимаешь
удивлен
##дяй
ветви
поезде
##рным
233
выборе
подозрение
Демократической
верится
намеренно
##вленно
Академи
керами
Ильи
##ШЕ
лампы
типу
страдают
##товым
doc
расширения
Прос
благоприят
эстет
Аэро
синдром
пенсий
сервиса
##ЖИ
325
!!!!!
Нормально
останки
Нур
rongo
местеч
ознакомиться
учения
кооп
245
псевдонимом
музыканта
трон
##полномо
ударов
Андреевич
сплав
Иерусалим
обряд
Sok
Считаю
Яна
напу
Робин
##вем
Мартовский
оператора
всерьёз
населенных
профессиональной
219
Сюда
ТЕ
поймали
называться
плата
реальным
обратном
поиски
##ненный
талантлив
японских
лодок
пота
кратера
Zh
Хат
похожий
общественности
##писание
##lines
дежур
поддержали
##_n
##ркут
Tiger
Звезды
Нали
требованиям
Технологи
слепо
##ugh
костей
июнь
задержанных
пустые
зелень
плану
поездку
найдем
сообща
Нах
телеканале
льда
величине
трогать
##летнего
приходили
позволили
cal
лента
##енья
##ystem
убирать
##шней
Германией
клавиш
Квин
дополнение
проблеме
органа
общался
##платель
полуострове
диском
слоя
313
жизней
фарма
##щейся
окраине
привычки
золотые
##hem
предыдущего
официальное
##стером
Сергеевич
Ден
случился
отдельной
##чаем
Состоя
Западная
Лебе
Тон
груза
переку
##ief
дождаться
конторы
московских
Полито
##лович
пролет
##star
##линой
работало
ведомство
помещении
официальные
##key
свидетельствуют
легитим
Читал
андроид
Кирилл
текстов
запрещать
чмо
Чубай
ИП
Android
заведений
подводных
##lakatl
atlakatl
присутствуют
сетях
##дди
необходимое
Лем
японский
пришед
AT
##цена
огромных
частями
пройдёт
свойство
условие
компьютеров
убила
Коди
Арно
##альны
ведения
Ску
лидеры
Пойду
лезут
послан
лесах
##швили
дрож
большевиков
кадра
Кант
действовал
образцы
достигну
лети
жаловаться
##кция
прослу
ландшаф
прику
##рио
цепи
участвуют
##рованными
##чайте
нога
Ca
Радио
рассматривается
элементами
СБУ
движением
Чечне
личном
понятий
написаны
##ровав
дна
возникновения
трусы
##ничества
ветке
безобра
Rag
носил
читатель
вызвали
##возят
башкир
безумно
звонки
авиационного
подобная
знакомая
Аполло
сложной
незначи
признавать
лигу
##кройте
подхва
ФК
собираемся
премий
Яку
##дником
сражение
##uH
Server
##монд
знакомым
Денис
шёл
посадка
##––––––––––––––––
связаться
Зая
студия
295
авиационной
воспиты
документе
королевской
исполняет
##ковали
вибра
россию
сделайте
##юм
геноцид
##стному
знам
пораз
образца
широкое
##сиан
двигателем
ядерного
ценам
##нот
эвакуи
штатов
дина
306
прожить
нужной
теплозащи
японцев
чеснок
##ансы
гаи
сорат
251
эволюция
##возможно
Ливии
оркестр
##нином
Офи
квант
еврейского
Памятник
Тита
##ops
отдыхать
рожд
##точной
вертолёт
травму
подруги
единороссов
поднялся
Скрипа
нашлось
вышедший
шну
начнёт
ресторане
##цких
Beyond
усу
немецкая
##ковал
европе
длине
##ктивного
бизнесе
стадиона
Газпрома
лошадей
СВО
умом
эми
происходить
визы
альтернативы
Корот
Уай
##ij
Ghost
##ates
отнести
драмати
физические
маргина
##тались
конспиро
публицист
соседнем
повстанцев
популяри
Zero
гравитация
немецким
обращать
кату
Jun
##щет
Сос
вые
##rans
неподалеку
Коммунисты
##шенным
##rosoft
1082
Ученые
плазмы
##емому
##ённости
сокращение
подходе
финансовые
Всемирного
оставшиеся
возникли
фру
отру
##йк
парой
цех
ИЗ
войскам
сообщений
приговорен
229
каталога
Inst
##четом
##ённому
##рованном
ознаком
##Sh
301
казаться
вправо
полом
Ито
Курской
prof
отличия
##phone
фотон
##совые
Миронов
выживания
соседних
бензо
плацебо
води
какова
Sw
приняты
ликвида
ero
Новом
корреспон
##воци
ment
захотят
недоо
отмени
стенки
Центральная
подмосков
Меди
254
Вода
употребления
покупатель
порабо
430
304
##ЕНИЯ
московском
Электро
сплошь
##нологии
Олега
интерфейс
возникло
Перво
вкусный
подскажите
расположение
##льев
Вьетна
##rueger
Константинополь
бездар
Отдел
калибра
откло
художественных
некоторыми
Коман
спутни
преступников
казаков
Krueger
инженера
умудря
столицей
позвоно
физиологи
нафига
Эндрю
социал
Любая
##нках
Joh
довести
родине
Кисе
событиях
гордиться
тень
##дях
совмести
импу
##atus
Хуй
##исти
дога
способа
1084
капитала
236
меняться
2х
Италию
досмот
малой
нейтри
подъезда
посадку
dirty
частная
Солнечно
старым
вти
кусочки
лечеб
коррект
пробки
турби
турне
Пояс
японского
##)))
цепля
прочт
диссер
английски
дальнейшего
##прома
четвёртый
##варда
марихуа
открывает
проигно
Напи
Вадим
Honor
издательства
крейсера
фантастики
следствием
##жне
##виков
Псковской
природных
##_l
##кинг
Почта
зеркала
электроэнергии
##нян
взы
возрастом
поверил
##стными
русофоб
материя
прочесть
эры
Жал
##стоят
вписа
понятен
юзерней
##сена
##энерго
героизм
сильного
Intel
Понял
##iens
вошел
субси
int
оранже
Solar
дрем
Вслед
основанный
##pie
баг
##калипси
##зование
постели
актрисы
уважаемые
записал
Доброе
Существуют
410
успела
Смер
Funtazer
узнают
взаимоотно
Наука
овощ
Ходор
##ссон
кайф
##iam
журналов
Работы
страховой
императором
норме
курю
нюанс
сценарист
обвиняют
сохранилось
##зик
ресурса
занимать
субор
продажа
Кент
##нау
мотоцикли
Британской
проявляется
фашисты
темой
модернизации
целое
инвестиций
бумага
##LL
тусов
песней
боб
kind
делиться
Кораб
сыграть
Кандидат
Нижегородской
иго
;...
умрет
установления
космодро
ветери
владельцем
Родители
''
##ald
увеличивается
называемые
всяким
мультфильм
достигли
валить
ранены
доступны
ситуаций
читаете
шоколад
Либера
говорилось
завершилась
порту
позволил
зарабатывает
пион
присоединения
студент
названы
часами
серебряный
##▬▬
почве
вокзала
долба
мыслить
##зас
##нового
широкой
вокза
##млн
робота
апрель
##чивая
##ствующую
надписью
##шиф
Музы
Кристиан
проволо
##чивости
##t369
шее
игнорировать
##lov
Сюжет
затро
##чуть
пропаганду
##сек
квантовой
значительный
солнечной
пилотов
yt369
абля
беседы
Православной
мертв
##риз
##шенного
ВСУ
Поня
террористы
колбасы
яндекс
раски
безвоз
торговой
полезная
носитель
персонал
произошедшего
олимпий
##союз
Мужчина
##_is
249
Mihail
районом
##iah
##uct
рабы
Hero
китайских
##uts
##торах
лучшему
долга
Merc
Хорош
шови
попытались
любила
флу
##феру
полотен
требованием
Видел
Чан
колледже
Ца
убитых
посол
Кавказа
баррель
##здо
альбо
залог
узнав
возможен
UN
лишнее
Dawn
doub
Джерси
беспомощ
спектр
заграни
вжи
Деб
взаимодействие
Luc
белом
бывал
раненых
проголосовали
сообщению
крестьянских
выстро
обращении
сели
ноябрь
тесно
пушки
сознании
##квизи
##докса
##чжоу
возьмут
внедоро
твердо
генери
erohov
адмирал
просту
чувством
разруши
величина
дама
Струга
НДС
Mos
заказу
изменился
воню
улучшить
мышцы
Лиге
польских
Американский
Волга
Эхо
Балтийского
защитника
Жириновскому
шесто
космети
Минске
наблюдение
Stan
вселенная
митрополит
##бр
приходил
планируют
##щами
переворота
##i_ff
)-
оплату
замечание
рассказывала
становиться
Элизабет
рассмотрения
Григорьевич
свадьбы
золотых
Орле
заш
изменяет
##кун
кВ
микровол
запустили
Петроград
organ
концерты
сырье
собрав
французским
негде
Форма
признался
Мороз
удобства
упря
##кия
Черном
##мп
##ровым
Египте
вынуждена
маркси
территориях
Поля
##кове
работающих
государственным
вражде
кода
охране
tel
Данный
крутить
программист
математике
глупые
зрителя
копать
осмыс
яркий
Сибирь
гражданами
показан
собрании
ТТ
взно
##вленного
поддерживал
старик
сантиметров
оскорби
располагаются
труды
##смен
##сб
##теря
собственном
ручку
##uin
Главной
прижи
##eck
##если
##денса
облака
ati_ff
здоровью
подростков
272
Скотт
Горького
правонару
детского
##arp
Диск
мяча
диван
транспорте
кремлев
заложников
решении
уклон
Коммента
вса
##СИ
ГГ
нанима
Far
продела
лагере
задания
полетит
готовый
Сун
признания
Торонто
австра
##ковича
##роу
выпускает
##ингом
борется
чугу
Mod
эро
Распростран
послушай
Внутрен
экономические
притащи
##держки
англичане
лингвист
подготовка
следующую
оду
##lek
фигуры
кристал
образованию
приобрёл
волон
распоряжении
Бала
порядки
буржуаз
озёр
Переста
немецко
посвящена
307
осуществляет
контакта
месяцы
sign
япо
Справедливо
экзамен
грузовик
херню
кодекса
Вау
помогали
##нце
боялись
интернетах
ищем
Европейской
поспе
доброво
крей
всякими
##кии
юрисдик
чтение
доставить
Стюарт
Сокол
демократической
заявлений
Але
##рив
Ev
вызвала
Газа
лак
Cent
прорыв
экономический
##зай
признают
Зенит
хлор
существовало
Pet
Разо
огнестре
##ковском
краевед
механика
##odw
слияния
##нулось
кону
поймет
массовые
прямого
Стивен
##дек
##лак
##фай
##точка
санитар
##2706
местность
сократить
##пают
серебро
Грэм
Фрей
Участники
##ньи
течения
наез
познания
Охо
ленты
Мужик
едем
ане
страница
популярным
приказа
национальном
передвижения
аналогия
Ros
##ews
бросать
западного
##штаба
Монре
##лз
Виктория
недорого
Таган
князей
эвакуации
земной
осени
Индия
##жников
возврата
называемой
##ингу
тетра
очередную
мобили
##oint
употреблять
накор
католи
заявить
восстановлен
посадо
boy
Читайте
Pa
выпущены
дорогих
кампания
##терии
левые
сущность
Реб
дамы
прожил
направлений
настройки
шеф
истину
Лис
Изу
спецна
активистов
##релся
дверью
босс
влюби
жуликов
куса
Словакии
эффективнее
Воронежской
саду
пало
##ваемой
гад
Характер
олив
смартфон
когни
##сян
Жанейро
Ключ
iTunes
пластин
холодильнике
B0
камня
рейсы
заключенных
Говорю
Луганской
удивлюсь
Аравии
бгг
##енькая
морду
дипломати
##esla
скрывать
##ision
gener
Проблемы
верст
протестант
медицину
отдельного
Погоди
реальное
Бод
фашистов
добира
военная
планирую
Мут
##пур
info
рестав
Круг
Результаты
Цин
Университ
жертвой
услугу
парово
Журнал
афган
лестнице
учета
Доку
257
Клинтон
благород
воен
запаса
целена
выходя
тормозить
Штаты
##лум
удары
перекрё
огромного
навести
сост
расположенной
зубами
поподроб
Моро
вывали
##mb
стариков
подро
копее
тенденция
припарко
##erty
##зар
импульса
Jet
Брук
указания
##варить
изменит
Дык
мороже
гуманита
Эйнштейна
полторы
обсерватории
курсов
##живает
разумно
воздушной
##чило
задей
##произ
устоя
цитирует
Edge
##линей
##uel
Вашингтоне
самок
Османской
спровоци
напада
РОССИЯ
Mihail2706
переживать
эх
##щенного
Range
катастрофи
Англию
погугли
старте
разработана
Везде
вправе
##17s
населению
Жак
Mc
##рект
пригласил
металло
располагались
##хала
обязанностей
a17s
случаю
семьёй
жилищ
Аля
##льники
долгие
##мунд
Абра
новей
внят
##пустит
Дэвида
a17s76
Малая
изменилась
капитал
поставку
правого
Людей
Дэй
расположенного
##эна
электромагни
ускорение
##фана
##avy
##orr
контекст
кодекс
271
аудитория
Викто
##org
Факт
отметив
Турция
землях
взлет
Юли
объясняется
##шались
Вашему
упад
тюрк
достойно
молдав
чёрный
вторжения
полутора
воля
совершили
ежем
необходимых
Справедливой
Ro
соля
лорд
переимено
суши
вершины
формул
хвали
таджи
профессиональных
Александру
##SA
салона
загадка
##тян
европейского
двусторон
сиро
перело
британская
акцию
сфе
Внимание
##гистра
колбасу
Вечером
окном
смеси
лесов
##сьте
фанатов
Que
##жина
##down
возьмем
##where
плаз
дескать
##маш
будущий
303
Армию
##зером
красивой
отрядов
выстраи
237
##ступила
гиль
Арка
##эра
Дель
критиковать
обучался
спрошу
старто
Уруг
примером
Ненави
брыз
правде
заменя
орать
цитату
приказом
Никак
Старший
военными
##буса
рассматривает
полагает
Уста
##етти
возглавля
##ited
##54
обозначение
##пич
##дерлан
##ждой
симптом
Малой
##AM
##нуто
MP
ray
второму
рулит
сегодняшнего
взло
реале
##iw
обошлось
щен
бумажки
##гоне
окупа
disc
персонала
##мейстер
выполнил
##таю
##усы
Подмосков
компьютерных
папы
Саратовской
механизма
тренировки
##irst
плакать
являлось
пьяный
##лавли
конкрети
block
333
думая
приборы
образовании
существовала
соответствующих
выглядело
##alog
распространяется
Петропавлов
Полностью
потребовали
исключить
певца
управляет
##щён
буй
раси
Пакистана
фэн
обезьян
старом
бесконечности
Венг
таскать
id14
хребта
обнаружения
##пую
дружить
модификации
Har
##щиками
близкие
MA
СБ
Севастополь
прямое
Кое
огля
##тиком
ходом
ВГ
##рано
полученные
республик
nick_
превратить
рассказов
экстр
вслух
Физ
##iter
460
242
заду
клубу
сказка
##шилось
кинотеат
концлагер
сынок
##хт
введение
отси
Черномор
готовые
Владимирской
утверждению
сложное
##бовала
подозрения
углов
иммунитет
диссертации
признана
Филиппа
Досто
)).
башня
##ender
##точных
объединены
родных
быт
удлин
##inux
Суб
##хит
трассы
гормо
##дины
видами
успев
запасы
нехи
Пента
дыхание
шей
беспорядков
вытя
скрыть
гры
преступлениях
действовали
##сион
двена
колы
Корее
уникальный
подробностей
##жими
миротвор
поменял
местными
заканчивая
учёбы
японцы
введена
отменял
участках
EC
посыл
действиями
введены
обычном
ненавидит
журналах
Бот
##шево
обреза
ленин
секции
показано
сепарати
Объясните
контента
файлы
пальцами
alex
сигналы
личку
украинским
кремле
продюсером
SLS
судебного
проснулся
Альберт
траву
акцент
Ел
наре
инициатива
бродя
получаешь
миниат
указывать
288
осознать
мистера
риска
заход
поспорить
Установ
комедий
собиралась
від
##судар
копия
Рид
Джексон
пережить
наступит
микрос
антропо
##были
миллиметров
Режи
Подскажите
Тяже
самолете
Максима
##НС
Гин
кончится
Саудовской
солидар
умным
интересом
Шек
пятый
##мести
##52
абзац
Эмили
последовательно
зарплате
Завод
скота
инженером
##ware
узбек
упомянуть
наж
добер
Войска
Steel
##enn
наркоман
прекратил
##нером
работник
экономии
вытека
##ares
устарев
занято
Степан
Чехословакии
поднимается
трупы
достопри
трупов
Варшаве
основную
res
текущий
ютуб
##талия
кабинета
Уровень
зарабатывают
синхрони
сигнали
секторе
Дима
UPD
угу
ког
фильтр
Пойдем
285
Сохран
слабый
фактами
##шался
Кури
Народного
сообщило
доски
подожди
##луб
сква
Западный
Господь
споры
Вознес
зашла
микроб
ВОВ
##обу
афро
заливе
##как
%).
публикаций
написания
##AC
рюкза
Пил
Федерального
Шерем
срать
Евросоюз
производят
туризма
Джули
шоки
придумывать
скру
вымер
Алма
созданием
гнев
##cm
Фрун
плюсу
прекращении
вывес
заявку
пиздо
алгоритм
добавляет
брод
поедет
Хок
загруз
ядро
выско
##ложим
интерфей
##дере
##рум
Вернее
##_b
принадлежала
Отсут
качественный
профсою
прошлых
Буша
Evil
Нидерланды
строительству
суммар
жанр
укло
хозяи
победила
Европейский
Грузия
электрод
Быстро
патен
открытой
распеча
кафедру
символизирует
##eon
рожать
проци
нефтяной
страшные
шума
скульптуры
важная
судебных
Имхо
Us
##плат
мешок
пени
einherjar
##EN
походе
SD
244
слезы
Соколов
больные
поиске
rb
##s_
##нейшая
удержать
##калы
Шей
Крат
воровство
##талий
знаменитого
проспекта
гугли
ламп
южных
школьников
автобуса
дотя
Собор
выдумы
пользователи
вспомните
съёмки
разогре
##нинг
билета
неяс
фигура
##TC
##кания
открытии
адеп
##глись
бабо
поступок
южном
жопой
философия
оставлю
взялись
симпа
сопровожда
##lim
повезет
колёс
эмиграции
##ректно
леп
CV
нарушении
упы
хлам
Рой
##цкие
Международная
мирного
комфорта
##лёк
##yl
Афганистана
Ленинграда
выступить
расчеты
признаны
##довала
##Phone
изящ
переговорах
легион
многократно
Мартина
долгий
механики
##olt
##сообраз
особое
Русская
Кил
признает
вине
оставалась
строк
площадка
фарш
намекает
нормальном
##дайте
##интересу
Восточного
известными
агит
характеризуется
поголо
Фонда
предложений
высоком
завяз
Издание
дураков
автомобильной
##редка
Неа
##LC
Скорость
Наряду
признаку
пользования
отключить
валюты
канцеля
прекращения
открыты
физического
##ське
шестой
фабрики
доспе
##утов
Последнее
Николь
СТО
сквоз
Подозреваю
Перес
Alpha
хохлы
религиозной
##новок
океане
##преде
##ротвор
##леп
Forbes
315
созданная
смешной
бедные
провозгла
ритм
тиражом
Лам
##ритесь
Казахстане
Средней
Купил
чиновник
Магнит
изоли
боевого
##соров
Штатов
Генеральный
обязана
действующей
Тома
##СЕ
обычную
избегать
корень
классный
критерий
подли
Авторы
поуча
Австралия
одноманда
павиль
мужчиной
вовле
ФИФА
привычка
предельно
##ЛЮ
вступить
кероси
Последняя
выплатить
сельской
дзю
вкла
торгового
детка
подняться
враждеб
северных
коротком
царства
мура
##icker
––
Русь
перет
проводился
продает
##атри
hom
попроще
Следственного
разбу
каково
нм
##vr
Уот
сэкономить
переведен
песне
##дарь
глубины
ксено
выдал
ущерба
Поста
разбираюсь
невинов
##PG
Задача
перепа
##хослова
Меркурия
открытых
редакцию
фео
убивал
Габри
кошма
Tesla
Mail
улучшения
страшная
триллиона
электорат
бездом
прибал
поднят
Саакашвили
потолок
Первую
смешные
музыкой
благослов
сотрудничал
уступить
виски
похудеть
мучени
##ничать
Стоп
думаем
##дками
биологии
dbor
##alm
сжечь
прекрасные
любимые
критика
Парламент
совместной
Выход
удивляться
романов
Гора
филиал
##сывать
ретро
называл
мекси
Shadow
ширины
инвестиции
греческой
каналов
штрафа
напрочь
копы
трога
отверстия
джентль
Использу
Сумма
##летают
рядах
##put
затрудни
информи
адекватные
испанской
Джоном
посвятил
занялся
Официально
Спер
##коп
Антонов
центральных
расширение
##ловки
делегации
окружении
применением
##ulation
высказал
Матве
почувствовать
занимаетесь
месторождений
толпу
##фельд
насчитывает
корректи
##ouse
абсурд
сковород
##osh
##ози
##92
стараться
мему
свежие
стеб
сыграли
Дур
записан
фрукт
жесть
##зируют
объясни
##вязки
Билл
культурных
Берлина
?(
продано
АС
глубина
обожаю
представляешь
героем
Бёр
почувствовал
##98
затрат
возможны
абор
окружающим
Убе
ставку
эпизоде
Валентина
##дорова
Программа
королю
туш
километра
Rich
волнуйся
комментировать
минутку
##кр
Вернувшись
Артем
болельщиков
небольшого
перелом
граммати
Главная
пасту
перехват
принятие
испанского
свидетельства
изря
согласились
##юар
подно
карточки
панк
особенностей
выполнены
драмы
##мысля
визит
акция
покру
мифи
Дмитриевич
пресе
пляже
##низма
необо
раком
мальчиков
Amazon
?",
поручил
испор
церковно
Паль
##хозяй
навре
247
представила
Нужна
оставались
зашка
штор
книгах
русское
Госдуме
малове
##совых
церемония
заключению
беседу
долины
Биз
##спа
##_mail
некую
##бры
долей
атомной
Светлана
Козлов
##уди
спецназ
продавали
Размер
бардак
Зря
правовой
##gor
Win
территорией
Украинская
дебаты
разбит
Профессор
предметом
процессу
жительства
вредно
##берт
начальство
##хотво
##рама
электронных
римского
мобильных
риф
##cc
##сио
домашний
указывают
концепция
будущих
проверял
дефол
Останови
фронтов
!...
##зилась
Вопросы
перерабо
одол
##azi
верный
Laz
награда
Блэк
неизвестна
kur
воспитания
##лея
восточного
поселка
Следует
данному
юр
релье
Бонд
счастливы
самцов
Безусловно
Одессе
Mk
жириновский
406
фрагмент
торговле
внести
мастерской
уязви
уничтожены
оправдание
поблагода
аппараты
стремление
сельском
##нис
##групп
курил
VL
почтовых
##зри
зрение
землетрясения
московской
DS
креста
нынешние
Ной
Прохоров
Правитель
додума
вооружений
tel_mail
производством
компаниями
сидишь
Буэ
##лках
символов
трактор
корпусе
Сказал
текущей
МР
доступен
1087
любителя
первоисто
памятники
юби
##емии
Рассе
Све
Тради
##депа
просьба
образуется
ГК
подъём
зау
Игрок
зерно
альфа
центральный
основными
насчитывается
полы
темной
Пх
адапти
палки
Пресс
Серьёз
начинаем
развал
листа
##копа
сибир
прер
выиграли
придуман
бедности
закрыта
ждала
volk
видится
абон
авантю
фигню
свеж
государственную
чистить
Гром
##мели
вырастет
различия
ранение
резонанс
вышеу
фемини
канце
Пекине
ВТБ
обратите
ЮНЕСКО
##щикам
##льников
сельскохозяйственных
стабильность
мизер
##тикой
пустили
спектра
Fast
принесла
уверенности
##ovo
заболевание
Специалист
напомнил
##amer
Победитель
городке
космическая
личную
##керы
Выше
корне
норве
Картина
##_2
Майкла
##числ
Четыре
чре
парашют
расстрел
pers
олен
поеду
оказать
Дитфри
повесить
хотеть
##пёр
Уайт
толка
Накануне
ведется
DM
московский
поставля
Фот
правоохранительные
предлагать
жалобу
стоила
тупая
mix
ешь
Animal
шты
Христо
здорового
##лково
цифрами
набора
АП
ниг
##листы
фиоле
пах
ковар
элита
уменьшить
чьей
Элли
ненавидеть
самолёты
постоянный
нанести
легкие
дебилов
Фанта
снялся
)=
бегают
вывез
прон
грандиоз
повседне
призра
##BA
члени
называемых
погибшего
Beo
продолжительность
канику
упадет
Банка
флагом
Лют
##лест
Снима
##evel
IGld
Помнишь
Краснодарского
невино
Fiat
построек
ТОЛЬКО
Min
сру
позвольте
палом
владельцы
Духов
пирамиды
тяжёлой
покро
улицам
учёбу
##ковская
##тивными
##ilm
йорк
одинаков
постановлением
начато
порядку
поставлен
РАЗ
##".
спонси
белое
Миша
##rox
гарнизон
Titan
водить
ленту
яблоки
диаметр
390
очередное
вершине
коробке
##енькие
оформить
поступает
##спокой
Восточный
Следующий
сводится
авиационный
продолжения
Nu
посоветовать
##жант
трети
##стном
Скан
Трей
Оле
Пери
Федоров
лига
Тело
Хит
представляла
коша
Отмет
взлом
раскра
водка
озере
##ману
существовали
исторически
фильтра
носили
##тоза
воспринимается
возвращать
каш
Стало
каша
Стрел
завершении
некоторой
##стрия
выкладывать
галсту
##десяти
труба
горожан
снай
Доход
работами
югослав
скидки
яз
ископа
произведен
операциях
ценных
демонстрации
преодолеть
Кэт
Экономи
##няйте
доставлен
Вильню
действующих
парус
провинци
сина
крестьяне
именами
Ричарда
подписчиков
прикреп
BL
французы
втро
управлен
пакети
группировка
близне
гараже
данную
Американцы
Пермского
выйдя
273
газету
генеральным
французская
целесообраз
##press
доступе
ЛНР
туристы
Комиссии
Новороссий
кормят
хреново
авиакомпания
арбитраж
выдуман
##гари
популярностью
встречает
полезное
Вега
сенатор
iPhone
##ЧИ
издательство
ежемеся
прозву
газе
Мишель
химических
слеп
рейсов
опубликовала
sus
упер
месторо
имеющий
ветеранов
Известия
##oid
Собя
китайского
Гораздо
Вера
написан
гугле
воздействие
##емов
1076
Отто
левых
литературу
##вито
Гат
желанием
считай
##рями
мечети
##нена
##ature
издании
##зывают
##anasy
266
запросы
стандартный
преодоле
ann
##зины
принцес
Отмечается
##меном
Думал
удел
согражда
##aca
направить
активной
налогоплатель
Зао
Премия
##дией
отстаи
объеме
отправились
музыкальные
успокаи
зре
невест
Вино
промышленного
Львов
оставшихся
##вика
vas
">.
добр
оплачивать
проиграла
применяются
сумку
##бает
равновеси
##amb
крупными
прогулки
##ivanov
западно
постоянные
##люк
Баль
Flash
Afanasy
##лету
полей
##джин
##дёте
##quer
князем
Бред
системах
Двига
Afanasyev
стратегия
Францу
Томаса
Выходит
административном
рекор
шедевр
огнем
берите
;–)
Ял
построенный
полагать
323
располагалась
старались
просмотр
сломан
близки
дикие
подрыв
среда
читаешь
Голос
пользовались
Сью
wel
справляется
обратную
точность
приложений
уничтожать
обещает
градус
Мун
##хер
##хен
##тран
Амстердам
сбили
возможна
карьера
поселке
драк
id18
##ректор
268
произвести
живое
Азиат
##ждена
##ливают
Жители
обсуждаем
проходи
наце
сик
намека
(((
обязанность
шриф
традиционных
приговорил
выполнял
танцу
передано
посоветовал
##цк
##томи
собирали
коэффициент
перестает
shonn
263
Расскажи
нагрева
Скот
302
Обамы
интим
россиянам
##рений
##женными
разнови
АБ
##сится
вставить
##ционными
Сильно
Иркутской
казино
дой
акционеров
нече
предотвратить
стака
возвращение
престола
критерии
Вокруг
оркестром
ОД
Смотрю
несёт
разбро
##няков
древнего
судо
##дентов
прессы
##eter
поездка
Вашу
ключевых
софта
##ating
любя
строения
уровней
человеческие
гражданства
Буква
найдешь
прелесть
##тягивать
ведущим
февраль
урожай
СЕ
science
Моё
пенсия
Beat
Валерия
балл
6000
локомотив
спортсмена
апелля
передел
Берк
приносят
неос
##щай
айти
бронзовый
накапли
Римский
семина
ХХ
Sap
##53
арене
МС
##дочку
невес
##cess
испытывать
светофо
##зако
скульптур
оригинальный
Начал
сомневаться
[...]
